// Motor Classification Model - TinyML
// Auto-generated file - Do not edit manually
// Model trained on MPU6050 data (Accel + Gyro)

#ifndef MOTOR_MODEL_H
#define MOTOR_MODEL_H

const unsigned char motor_model[] = {
  0x1c, 0x00, 0x00, 0x00, 0x54, 0x46, 0x4c, 0x33, 0x14, 0x00, 0x20, 0x00, 0x1c, 0x00, 0x18, 0x00,
  0x14, 0x00, 0x10, 0x00, 0x0c, 0x00, 0x00, 0x00, 0x08, 0x00, 0x04, 0x00, 0x14, 0x00, 0x00, 0x00,
  0x1c, 0x00, 0x00, 0x00, 0x98, 0x00, 0x00, 0x00, 0xf0, 0x00, 0x00, 0x00, 0xe0, 0x0e, 0x00, 0x00,
  0xf0, 0x0e, 0x00, 0x00, 0xb0, 0x14, 0x00, 0x00, 0x03, 0x00, 0x00, 0x00, 0x01, 0x00, 0x00, 0x00,
  0x10, 0x00, 0x00, 0x00, 0x00, 0x00, 0x0a, 0x00, 0x10, 0x00, 0x0c, 0x00, 0x08, 0x00, 0x04, 0x00,
  0x0a, 0x00, 0x00, 0x00, 0x0c, 0x00, 0x00, 0x00, 0x1c, 0x00, 0x00, 0x00, 0x3c, 0x00, 0x00, 0x00,
  0x0f, 0x00, 0x00, 0x00, 0x73, 0x65, 0x72, 0x76, 0x69, 0x6e, 0x67, 0x5f, 0x64, 0x65, 0x66, 0x61,
  0x75, 0x6c, 0x74, 0x00, 0x01, 0x00, 0x00, 0x00, 0x04, 0x00, 0x00, 0x00, 0x90, 0xff, 0xff, 0xff,
  0x0a, 0x00, 0x00, 0x00, 0x04, 0x00, 0x00, 0x00, 0x08, 0x00, 0x00, 0x00, 0x6f, 0x75, 0x74, 0x70,
  0x75, 0x74, 0x5f, 0x30, 0x00, 0x00, 0x00, 0x00, 0x01, 0x00, 0x00, 0x00, 0x04, 0x00, 0x00, 0x00,
  0x06, 0xf1, 0xff, 0xff, 0x04, 0x00, 0x00, 0x00, 0x0e, 0x00, 0x00, 0x00, 0x6b, 0x65, 0x72, 0x61,
  0x73, 0x5f, 0x74, 0x65, 0x6e, 0x73, 0x6f, 0x72, 0x5f, 0x36, 0x00, 0x00, 0x02, 0x00, 0x00, 0x00,
  0x34, 0x00, 0x00, 0x00, 0x04, 0x00, 0x00, 0x00, 0xdc, 0xff, 0xff, 0xff, 0x0d, 0x00, 0x00, 0x00,
  0x04, 0x00, 0x00, 0x00, 0x13, 0x00, 0x00, 0x00, 0x43, 0x4f, 0x4e, 0x56, 0x45, 0x52, 0x53, 0x49,
  0x4f, 0x4e, 0x5f, 0x4d, 0x45, 0x54, 0x41, 0x44, 0x41, 0x54, 0x41, 0x00, 0x08, 0x00, 0x0c, 0x00,
  0x08, 0x00, 0x04, 0x00, 0x08, 0x00, 0x00, 0x00, 0x0c, 0x00, 0x00, 0x00, 0x04, 0x00, 0x00, 0x00,
  0x13, 0x00, 0x00, 0x00, 0x6d, 0x69, 0x6e, 0x5f, 0x72, 0x75, 0x6e, 0x74, 0x69, 0x6d, 0x65, 0x5f,
  0x76, 0x65, 0x72, 0x73, 0x69, 0x6f, 0x6e, 0x00, 0x0e, 0x00, 0x00, 0x00, 0xec, 0x0d, 0x00, 0x00,
  0xe4, 0x0d, 0x00, 0x00, 0x94, 0x0d, 0x00, 0x00, 0x74, 0x0d, 0x00, 0x00, 0x64, 0x0c, 0x00, 0x00,
  0x54, 0x04, 0x00, 0x00, 0x44, 0x01, 0x00, 0x00, 0xb4, 0x00, 0x00, 0x00, 0xac, 0x00, 0x00, 0x00,
  0xa4, 0x00, 0x00, 0x00, 0x9c, 0x00, 0x00, 0x00, 0x94, 0x00, 0x00, 0x00, 0x74, 0x00, 0x00, 0x00,
  0x04, 0x00, 0x00, 0x00, 0xba, 0xf1, 0xff, 0xff, 0x04, 0x00, 0x00, 0x00, 0x60, 0x00, 0x00, 0x00,
  0x10, 0x00, 0x00, 0x00, 0x00, 0x00, 0x00, 0x00, 0x08, 0x00, 0x0e, 0x00, 0x08, 0x00, 0x04, 0x00,
  0x08, 0x00, 0x00, 0x00, 0x10, 0x00, 0x00, 0x00, 0x24, 0x00, 0x00, 0x00, 0x00, 0x00, 0x06, 0x00,
  0x08, 0x00, 0x04, 0x00, 0x06, 0x00, 0x00, 0x00, 0x04, 0x00, 0x00, 0x00, 0x00, 0x00, 0x00, 0x00,
  0x0c, 0x00, 0x18, 0x00, 0x14, 0x00, 0x10, 0x00, 0x0c, 0x00, 0x04, 0x00, 0x0c, 0x00, 0x00, 0x00,
  0x2c, 0x56, 0xf3, 0x32, 0x4d, 0x8a, 0x73, 0x42, 0x02, 0x00, 0x00, 0x00, 0x02, 0x00, 0x00, 0x00,
  0x04, 0x00, 0x00, 0x00, 0x06, 0x00, 0x00, 0x00, 0x32, 0x2e, 0x32, 0x30, 0x2e, 0x30, 0x00, 0x00,
  0x26, 0xf2, 0xff, 0xff, 0x04, 0x00, 0x00, 0x00, 0x10, 0x00, 0x00, 0x00, 0x31, 0x2e, 0x35, 0x2e,
  0x30, 0x00, 0x00, 0x00, 0x00, 0x00, 0x00, 0x00, 0x00, 0x00, 0x00, 0x00, 0x34, 0xed, 0xff, 0xff,
  0x38, 0xed, 0xff, 0xff, 0x3c, 0xed, 0xff, 0xff, 0x40, 0xed, 0xff, 0xff, 0x52, 0xf2, 0xff, 0xff,
  0x04, 0x00, 0x00, 0x00, 0x80, 0x00, 0x00, 0x00, 0x69, 0xd5, 0x37, 0xbf, 0x7a, 0x05, 0x97, 0xbe,
  0x12, 0x03, 0xb9, 0xbe, 0x69, 0x7e, 0x25, 0xbf, 0x52, 0xf2, 0x63, 0x3e, 0xd6, 0x2c, 0xa1, 0xbe,
  0x82, 0x5c, 0x19, 0xbf, 0x81, 0x61, 0xb6, 0xbe, 0x3b, 0xb2, 0x42, 0xbe, 0x16, 0xfb, 0x64, 0xbe,
  0x8f, 0xcc, 0x1d, 0xbf, 0xb9, 0x6b, 0xc6, 0xbd, 0x03, 0xde, 0x37, 0xbe, 0x11, 0xce, 0x65, 0xbe,
  0x19, 0x7f, 0xb1, 0x3d, 0x97, 0x6e, 0x02, 0xbe, 0xe3, 0x14, 0xed, 0x3d, 0xf8, 0x45, 0xb8, 0xbe,
  0x34, 0xdf, 0xa4, 0xbe, 0xaa, 0xb3, 0xc0, 0xbe, 0x73, 0x64, 0xe9, 0xbe, 0x4b, 0x88, 0x2a, 0x3e,
  0xfc, 0x1f, 0x1d, 0xbf, 0xf9, 0x27, 0x92, 0xbe, 0x77, 0x3c, 0x75, 0xbf, 0x60, 0x79, 0x8a, 0xbe,
  0xb0, 0x4e, 0x62, 0xbe, 0x1f, 0x5b, 0x49, 0xbe, 0x36, 0x85, 0x0d, 0xbf, 0x54, 0x55, 0x1b, 0xbf,
  0x56, 0xba, 0x4e, 0xbe, 0x8e, 0x71, 0xdb, 0xbd, 0xde, 0xf2, 0xff, 0xff, 0x04, 0x00, 0x00, 0x00,
  0x00, 0x03, 0x00, 0x00, 0xd3, 0xad, 0x0e, 0xbf, 0xfe, 0x7d, 0xc7, 0xbd, 0x5d, 0x6c, 0x1a, 0xbf,
  0x9f, 0xf8, 0x2b, 0x3e, 0xf8, 0x74, 0x2b, 0x3f, 0xc2, 0x0d, 0x8e, 0x3e, 0xab, 0x8d, 0x09, 0x3f,
  0x50, 0xf0, 0x9e, 0x3e, 0x0d, 0xc8, 0x2d, 0x3f, 0x71, 0xa1, 0x15, 0xbe, 0x9a, 0xdc, 0x22, 0xbf,
  0xa5, 0xa2, 0xe1, 0xbd, 0xc2, 0x8a, 0x29, 0xbe, 0x9f, 0xf8, 0x71, 0xbe, 0x55, 0xb0, 0x71, 0x3e,
  0xf5, 0xb0, 0xa6, 0x3d, 0xdd, 0xfd, 0x93, 0x3d, 0x3b, 0x12, 0x8e, 0x3f, 0x99, 0xfc, 0xd2, 0xbd,
  0x3a, 0x4f, 0xc0, 0xbe, 0x44, 0x86, 0x88, 0x3e, 0x58, 0xde, 0x4f, 0xbf, 0x8a, 0x49, 0x30, 0x3d,
  0x09, 0x7c, 0xfe, 0x3e, 0x85, 0x1a, 0x83, 0xbe, 0xd7, 0x88, 0x45, 0xbe, 0x9f, 0x60, 0xaf, 0xbd,
  0x96, 0xbc, 0x0e, 0xbb, 0x93, 0x1c, 0xe6, 0x3d, 0x2d, 0x34, 0x7f, 0x3c, 0xea, 0x66, 0xa3, 0x3c,
  0x3b, 0xab, 0x6a, 0xbe, 0x46, 0x43, 0x4d, 0x3d, 0xcf, 0x74, 0x84, 0xbf, 0xcb, 0xc9, 0x3a, 0x3e,
  0x3c, 0x86, 0x4d, 0xbf, 0x65, 0xe5, 0x8a, 0x3e, 0x94, 0xf2, 0xf2, 0xbc, 0xc7, 0x5b, 0x9f, 0xbd,
  0x8c, 0x4e, 0x81, 0xbf, 0x2a, 0x7c, 0x65, 0xbe, 0x03, 0xbb, 0x00, 0x3f, 0xdb, 0x7b, 0x81, 0xbf,
  0x26, 0xdc, 0x20, 0xbe, 0xf1, 0x53, 0xd6, 0xbe, 0x02, 0x41, 0x8d, 0xbe, 0x14, 0xa2, 0xbe, 0x3e,
  0xf3, 0x68, 0xa2, 0xbe, 0xb6, 0x2d, 0x8a, 0xbb, 0xf3, 0x0c, 0x9a, 0xbe, 0x9a, 0xfc, 0x20, 0xbf,
  0x12, 0xb8, 0x9c, 0x3d, 0x28, 0x22, 0xcc, 0x3e, 0x19, 0x15, 0x63, 0x3f, 0x55, 0x38, 0xc1, 0xbe,
  0xfc, 0x2a, 0x68, 0xbf, 0x7e, 0x50, 0x01, 0xbf, 0xb6, 0xdf, 0xe5, 0x3e, 0xe4, 0x24, 0xdd, 0x3c,
  0xe5, 0xef, 0x1f, 0xbf, 0x27, 0x79, 0xea, 0x3e, 0x69, 0x95, 0xf8, 0x3c, 0xb5, 0x61, 0xb7, 0xbd,
  0xbb, 0x22, 0x4d, 0x3f, 0xee, 0x17, 0x43, 0xbd, 0xdf, 0xc4, 0x19, 0xbf, 0x8a, 0xe5, 0x41, 0x3e,
  0x62, 0xa3, 0x17, 0x3e, 0x2a, 0xa4, 0x18, 0xbe, 0x13, 0x48, 0x84, 0xbe, 0x43, 0x16, 0xd0, 0xbd,
  0xf1, 0xb0, 0x70, 0xbf, 0x04, 0x72, 0xc5, 0x3e, 0x38, 0x3a, 0xd7, 0x3e, 0x6d, 0x06, 0xee, 0xbd,
  0xff, 0x3d, 0x1d, 0x3e, 0x1d, 0x10, 0x80, 0xbe, 0x6f, 0x65, 0x7f, 0xbf, 0x4f, 0x90, 0x03, 0xbf,
  0xf7, 0x81, 0x56, 0xbe, 0xe3, 0x0a, 0x65, 0x3e, 0x76, 0xb2, 0x68, 0x3f, 0x19, 0xf8, 0xd3, 0x3e,
  0xbe, 0x7f, 0xc1, 0xbe, 0x4c, 0x8b, 0xf0, 0xbd, 0x08, 0xf1, 0xdb, 0x3d, 0xf9, 0xf4, 0xc0, 0xbd,
  0x0f, 0x1b, 0x9e, 0x3e, 0xef, 0xfe, 0x17, 0x3e, 0xb0, 0xea, 0x30, 0x3f, 0x78, 0xd1, 0x6e, 0x3f,
  0x8d, 0x6d, 0x89, 0x3d, 0x12, 0xc6, 0x3e, 0xbd, 0xc1, 0x31, 0x8a, 0xbe, 0xad, 0x17, 0xfd, 0xbb,
  0x70, 0xec, 0x35, 0x3e, 0xc1, 0xbc, 0x62, 0xbe, 0xd2, 0x1e, 0x88, 0x3e, 0xa3, 0xdb, 0x65, 0xbd,
  0xca, 0x7d, 0x39, 0x3e, 0x23, 0xcd, 0xe8, 0x3d, 0xfd, 0x5c, 0x86, 0x3e, 0xd3, 0x99, 0xbb, 0xbe,
  0xa4, 0x25, 0xce, 0xbc, 0x94, 0x8a, 0x15, 0x3e, 0xc7, 0x41, 0x0e, 0x3f, 0x51, 0xd4, 0x79, 0x3e,
  0x00, 0xd9, 0x9c, 0x3f, 0x36, 0x71, 0xa9, 0xbd, 0x18, 0x5b, 0x47, 0xbf, 0x73, 0xd4, 0x1b, 0xbf,
  0x56, 0xc8, 0x10, 0x3f, 0xdf, 0x23, 0x06, 0xbf, 0x70, 0x2e, 0xd9, 0xbe, 0x30, 0xfa, 0x98, 0xbe,
  0xe4, 0xf0, 0x20, 0x3e, 0xf8, 0x15, 0x8b, 0x3d, 0xdc, 0x50, 0x4d, 0x3f, 0x8d, 0x19, 0x13, 0x3e,
  0x54, 0x57, 0x54, 0x3f, 0x0a, 0xf7, 0x81, 0xbf, 0x21, 0x8d, 0x54, 0x3e, 0xe1, 0x52, 0x5d, 0x3d,
  0x3b, 0xee, 0x6c, 0xbe, 0x2f, 0xdc, 0xc0, 0x3d, 0xe9, 0x9e, 0x9a, 0xbd, 0xa6, 0xdb, 0x1a, 0xbe,
  0xb2, 0xd3, 0x29, 0xbe, 0xd9, 0xd6, 0xc4, 0xbd, 0xfa, 0x57, 0xc2, 0x3c, 0xb8, 0xef, 0xa0, 0xbb,
  0x3c, 0x81, 0x09, 0x3c, 0x5c, 0x3e, 0xab, 0xbe, 0x8e, 0x15, 0xc1, 0x3d, 0x8e, 0xc0, 0x17, 0x3e,
  0x7d, 0x7b, 0x79, 0x3f, 0x0d, 0x40, 0x25, 0xbf, 0x39, 0x57, 0x88, 0x3d, 0x0d, 0xe7, 0x3a, 0xbf,
  0x6a, 0x9a, 0x47, 0x3e, 0xc6, 0xd3, 0xff, 0xbe, 0x1f, 0x73, 0x7d, 0xbe, 0xa3, 0x4c, 0x6a, 0x3e,
  0x17, 0xbf, 0xc1, 0x3e, 0x3f, 0x7d, 0x3a, 0x3d, 0x6f, 0x0a, 0x30, 0xbe, 0x73, 0x88, 0x32, 0x3c,
  0xab, 0xb4, 0x89, 0xbf, 0xa4, 0x3d, 0xfb, 0xbc, 0x57, 0xe6, 0x05, 0x3d, 0xbf, 0xee, 0x1d, 0x3f,
  0x05, 0x33, 0x30, 0x3f, 0x39, 0x4e, 0xbe, 0x3d, 0xfd, 0xfb, 0x2c, 0xbf, 0x9c, 0x03, 0xa5, 0xbe,
  0xef, 0x6f, 0x18, 0x3f, 0xae, 0xc2, 0xc7, 0x3d, 0x6b, 0x53, 0x1a, 0xbf, 0x38, 0xb9, 0xb6, 0x3e,
  0xff, 0x7b, 0xff, 0x3d, 0x84, 0xd9, 0x27, 0xbf, 0xa8, 0xec, 0x3e, 0xbf, 0x8f, 0x16, 0x6e, 0x3e,
  0xa3, 0x6a, 0x3d, 0xbf, 0x17, 0xe2, 0x89, 0xbe, 0x24, 0x41, 0x2b, 0xbe, 0xdb, 0x04, 0x2a, 0x3e,
  0x7c, 0x66, 0x9c, 0x3f, 0x7a, 0x65, 0x03, 0x39, 0x48, 0x3e, 0xdd, 0xbd, 0xa5, 0x28, 0x18, 0xbd,
  0x23, 0xd9, 0x45, 0xbf, 0x69, 0x9a, 0xd0, 0x3d, 0x44, 0xeb, 0x81, 0xbf, 0x6a, 0x53, 0x74, 0x3f,
  0x1f, 0xc8, 0x0a, 0x3e, 0xf8, 0xc1, 0x2a, 0x3e, 0x59, 0x64, 0x84, 0xbe, 0x55, 0xf7, 0xb3, 0xbe,
  0xfe, 0xb9, 0x84, 0xbb, 0x2b, 0x8e, 0x90, 0xbd, 0x93, 0x84, 0x2f, 0x3f, 0x0e, 0xce, 0x42, 0x3f,
  0xef, 0x5f, 0xd5, 0xbd, 0x60, 0x4b, 0xe3, 0x3e, 0x96, 0xbe, 0x9a, 0x3e, 0x19, 0x90, 0xdc, 0x3e,
  0x42, 0x14, 0x04, 0x3f, 0xc4, 0x28, 0x0d, 0x3f, 0xa1, 0x9f, 0xc8, 0xbe, 0x43, 0x2e, 0x08, 0x3e,
  0x1b, 0xeb, 0xb7, 0xbc, 0xea, 0xf5, 0xff, 0xff, 0x04, 0x00, 0x00, 0x00, 0x00, 0x08, 0x00, 0x00,
  0xe5, 0x2d, 0xed, 0xbe, 0xc5, 0x64, 0x89, 0xbe, 0xfc, 0x70, 0xdf, 0x3e, 0xb1, 0xcf, 0x11, 0x3e,
  0x1e, 0x21, 0xe0, 0x3c, 0x11, 0xb6, 0xfb, 0x3e, 0x45, 0xcc, 0xaa, 0x3c, 0xc4, 0xa5, 0x9a, 0x3e,
  0x28, 0xfc, 0xed, 0xbe, 0xed, 0xa1, 0x4a, 0xbf, 0x1e, 0x21, 0x19, 0x3e, 0x5c, 0x21, 0x1f, 0x3f,
  0xe5, 0x6c, 0x7c, 0xbc, 0x97, 0x48, 0xc5, 0xbf, 0xe2, 0x6c, 0x6e, 0xbf, 0x22, 0xad, 0xa3, 0x3d,
  0x0a, 0x66, 0xc8, 0xbe, 0xcf, 0x57, 0x23, 0xbe, 0x85, 0xed, 0x30, 0xbf, 0x0d, 0x34, 0x80, 0xbe,
  0x46, 0x19, 0x19, 0x3e, 0xb2, 0xbd, 0xd3, 0x3c, 0xa7, 0x34, 0xcb, 0xbf, 0x23, 0x2f, 0xb6, 0x3d,
  0xb7, 0x3a, 0x7b, 0x3b, 0x69, 0xa5, 0x61, 0xbe, 0xdf, 0xc7, 0x2b, 0xbe, 0xfb, 0x22, 0x16, 0xbf,
  0x8c, 0x62, 0x35, 0x3f, 0xf8, 0x29, 0x0f, 0xbe, 0x68, 0xca, 0x55, 0xbe, 0x44, 0x64, 0xab, 0x3e,
  0x93, 0x75, 0x83, 0x3f, 0x59, 0xb4, 0x0d, 0x3f, 0xa7, 0x33, 0x98, 0xbe, 0xdd, 0x33, 0xf6, 0x3e,
  0x19, 0x31, 0x1c, 0x3e, 0x42, 0xee, 0x8e, 0xbe, 0x17, 0x0b, 0xb9, 0x3f, 0x56, 0x38, 0x00, 0x3f,
  0x46, 0xc4, 0xa5, 0x3e, 0x13, 0x75, 0x18, 0x40, 0x8c, 0x65, 0xec, 0x3e, 0x34, 0xe1, 0xd4, 0x3d,
  0x95, 0x72, 0x57, 0xbd, 0x67, 0x28, 0xa0, 0x3f, 0x88, 0x89, 0xb9, 0x3e, 0x06, 0x04, 0x90, 0x3e,
  0x7f, 0xa1, 0x20, 0x3e, 0x40, 0xad, 0xac, 0xbe, 0xe7, 0x43, 0xb9, 0x3f, 0xdd, 0x9f, 0x92, 0x3d,
  0xa3, 0x67, 0x60, 0x3b, 0xe7, 0xda, 0x9a, 0x3e, 0x84, 0x23, 0xe0, 0x3e, 0xcb, 0x16, 0xc6, 0x3e,
  0x61, 0x5c, 0x81, 0x3f, 0x8c, 0x51, 0xd6, 0x3f, 0x23, 0x46, 0xc4, 0x3e, 0xac, 0x46, 0x0b, 0x3e,
  0xd0, 0x24, 0x92, 0xbe, 0x04, 0xb3, 0xbe, 0x3f, 0x38, 0x39, 0xb3, 0x3f, 0x90, 0xb7, 0xa6, 0x3f,
  0xe6, 0x70, 0xad, 0x3e, 0xc3, 0x6a, 0x1e, 0xbe, 0x3a, 0x46, 0x45, 0xbf, 0x07, 0x13, 0x63, 0xbf,
  0xa0, 0xbc, 0x43, 0x3e, 0x1e, 0x21, 0xa2, 0xbf, 0x32, 0xb7, 0x0a, 0xbe, 0x6b, 0xda, 0x6a, 0x3e,
  0xff, 0x59, 0x01, 0xbd, 0x65, 0xe4, 0x5b, 0x3f, 0x21, 0xda, 0x90, 0xbe, 0x93, 0x32, 0xfb, 0xbe,
  0x1b, 0x9b, 0xc5, 0xbe, 0xb2, 0x03, 0x9e, 0xbe, 0x08, 0x25, 0x53, 0x3d, 0x9b, 0xf9, 0x43, 0xbf,
  0x70, 0xd0, 0x02, 0x3e, 0x54, 0x1d, 0xb8, 0xbf, 0xdd, 0xa5, 0x06, 0x3f, 0x26, 0x36, 0xe8, 0xbf,
  0x66, 0xa3, 0x87, 0xbf, 0x38, 0xd4, 0xbe, 0x3e, 0xae, 0x96, 0x2d, 0xbf, 0xeb, 0x92, 0xae, 0xbe,
  0xd2, 0x2b, 0x38, 0xbf, 0x6d, 0x96, 0x61, 0x3f, 0x8e, 0xa7, 0x49, 0xbf, 0x88, 0x0f, 0x26, 0xbd,
  0x6e, 0xcc, 0xa4, 0xbf, 0xce, 0x2a, 0xb0, 0xbe, 0xa2, 0xdf, 0x56, 0xbe, 0x87, 0x74, 0xdc, 0x3e,
  0x75, 0x51, 0xa0, 0xbd, 0x03, 0x4a, 0x55, 0x3d, 0xc2, 0xed, 0xd7, 0x3e, 0x81, 0x59, 0xd2, 0x3e,
  0x9f, 0x6d, 0x8b, 0xbe, 0xf5, 0x6e, 0xd1, 0x3e, 0x35, 0x29, 0x06, 0x3f, 0x7b, 0x68, 0x31, 0x3d,
  0x6d, 0x64, 0xc3, 0x3c, 0x65, 0x0d, 0x39, 0x3e, 0x8a, 0xb6, 0x43, 0x3f, 0xec, 0xd5, 0xd1, 0x3e,
  0x36, 0xf5, 0x87, 0x3d, 0x44, 0xdc, 0xcb, 0x3e, 0x7d, 0x3e, 0xf7, 0x3d, 0x41, 0xbe, 0xd8, 0x3d,
  0x9f, 0x7f, 0x66, 0xbe, 0xca, 0x80, 0xff, 0x3e, 0x0b, 0xfc, 0x01, 0x3e, 0x1f, 0xd4, 0x57, 0x3c,
  0x1a, 0x41, 0x63, 0xbd, 0x47, 0xf5, 0x03, 0xbe, 0x9d, 0xe0, 0x5c, 0x3e, 0x74, 0x4e, 0xac, 0x3b,
  0x7b, 0xba, 0xb6, 0x3f, 0x8e, 0xf6, 0x90, 0x3d, 0xfa, 0xc5, 0x59, 0xbd, 0x77, 0x1b, 0x63, 0xbc,
  0xee, 0x1d, 0x65, 0x3e, 0x2c, 0xca, 0xd4, 0x3d, 0x62, 0xe8, 0x9d, 0x3d, 0x59, 0xe3, 0x43, 0x3e,
  0x84, 0xfe, 0x79, 0xbf, 0xdc, 0xbd, 0xa2, 0xbe, 0x78, 0xad, 0x42, 0x3d, 0xc3, 0xe9, 0x87, 0x3c,
  0x55, 0x2d, 0x2a, 0x3e, 0xec, 0x5d, 0x84, 0x3e, 0xad, 0x2b, 0x3d, 0xbf, 0x83, 0x43, 0xef, 0xbe,
  0xa8, 0xa4, 0x67, 0xbe, 0x88, 0x77, 0x0b, 0xc0, 0x9e, 0x38, 0x3e, 0xbf, 0x20, 0xac, 0x4e, 0x3d,
  0x80, 0x1c, 0x1b, 0xbe, 0x4c, 0x42, 0xf8, 0xbe, 0x75, 0x1c, 0xb6, 0x3c, 0x1c, 0xcb, 0x59, 0xbe,
  0xb3, 0xab, 0x63, 0x3d, 0xd5, 0x78, 0x3b, 0x3d, 0xe2, 0x1b, 0x79, 0xbf, 0x93, 0x68, 0xc3, 0xbd,
  0x58, 0x85, 0x2b, 0xbe, 0x6e, 0x45, 0x4c, 0x3e, 0xd2, 0x9a, 0x80, 0xbe, 0xaa, 0x21, 0xe0, 0xbe,
  0x4e, 0x0b, 0x84, 0xbf, 0xaf, 0xad, 0xb3, 0xbf, 0xa3, 0x94, 0xd7, 0xbd, 0x87, 0x86, 0xcd, 0xbc,
  0x24, 0x6f, 0x3b, 0x3e, 0xaf, 0xd3, 0x89, 0xbf, 0x4c, 0x04, 0x56, 0xbf, 0x71, 0x3d, 0x2d, 0xbf,
  0x5b, 0x9c, 0x33, 0xbf, 0xe9, 0xdc, 0x8a, 0xbe, 0xbf, 0x2d, 0x3c, 0x3f, 0xe6, 0x5d, 0x11, 0x3f,
  0x57, 0xfe, 0xae, 0x3c, 0x7f, 0xdb, 0x45, 0x3f, 0xb8, 0x46, 0x70, 0x3e, 0x20, 0x75, 0x8f, 0xbe,
  0x5c, 0x44, 0x4f, 0xbd, 0x79, 0x0f, 0xbd, 0xbe, 0x10, 0x7c, 0x5e, 0xbd, 0xd9, 0xd5, 0x9d, 0xbe,
  0x29, 0xd0, 0x5e, 0x3f, 0x3b, 0xa9, 0x1e, 0x3e, 0x02, 0x9a, 0xc9, 0x3d, 0x63, 0xd3, 0xc4, 0xbb,
  0x6b, 0xc4, 0x4a, 0x3c, 0x0a, 0x1e, 0x67, 0x3f, 0xdd, 0x8b, 0x21, 0xbe, 0xb9, 0x92, 0x8f, 0x3f,
  0xfc, 0x7e, 0x12, 0x3d, 0x3b, 0xd8, 0x87, 0x3d, 0xbe, 0xba, 0x61, 0xbe, 0xf4, 0x0c, 0x34, 0xbe,
  0x0f, 0x63, 0x35, 0x3f, 0x4e, 0x4b, 0xb1, 0xbe, 0x9d, 0x9d, 0x86, 0xbd, 0x68, 0x39, 0x1e, 0x3e,
  0x6d, 0x0a, 0xdc, 0x3f, 0x3c, 0x32, 0xbc, 0xbe, 0xe9, 0x89, 0x36, 0xbe, 0xad, 0x79, 0xc6, 0xbe,
  0x48, 0x89, 0xc9, 0xbe, 0x74, 0x80, 0xb7, 0xbd, 0xf7, 0xe1, 0x70, 0x3f, 0x8c, 0x08, 0xda, 0x3e,
  0x24, 0x26, 0xd2, 0x3b, 0xae, 0xeb, 0x8c, 0x3f, 0x87, 0xb2, 0x77, 0xbf, 0x3d, 0xbc, 0xae, 0xbf,
  0x2d, 0x0f, 0xef, 0x3d, 0x22, 0x84, 0x9a, 0xbe, 0x84, 0x6f, 0x32, 0xbd, 0x41, 0xa7, 0x4a, 0x3e,
  0x10, 0xb0, 0x1b, 0x3f, 0xb7, 0x44, 0xe0, 0x3e, 0xf5, 0x62, 0xd9, 0x3e, 0x04, 0x2c, 0x9f, 0xbd,
  0x66, 0xe0, 0x70, 0x3e, 0x32, 0xaa, 0x3c, 0x3f, 0x2f, 0xaa, 0x80, 0x3c, 0x8f, 0x8f, 0x16, 0x3f,
  0xc9, 0x74, 0x27, 0xbf, 0xf0, 0x7f, 0x18, 0x3d, 0x78, 0xfd, 0x93, 0x3e, 0x1e, 0x4b, 0x01, 0xbf,
  0xaf, 0x59, 0x26, 0xbf, 0x4a, 0x0b, 0x36, 0xbf, 0x98, 0xe1, 0xde, 0xbd, 0x24, 0x10, 0x90, 0x3e,
  0xc6, 0xb5, 0x83, 0xbe, 0xc1, 0x65, 0x39, 0xbf, 0x9e, 0x77, 0x19, 0xbf, 0x2b, 0xc6, 0x88, 0xbf,
  0x62, 0xfd, 0x5a, 0x3f, 0x93, 0x9c, 0x64, 0x3d, 0xc9, 0x59, 0x25, 0xbf, 0x80, 0x4a, 0x1b, 0xbf,
  0xc7, 0xee, 0x39, 0xbe, 0x37, 0x1f, 0x6b, 0xbf, 0x4d, 0x20, 0x02, 0x3f, 0xd1, 0x08, 0x3d, 0x3e,
  0xad, 0x0d, 0x04, 0x3e, 0x07, 0xb4, 0x9f, 0x3f, 0xae, 0x1f, 0x12, 0x3e, 0xf0, 0xae, 0x09, 0xbf,
  0x8d, 0xd6, 0xcd, 0xbe, 0x98, 0x63, 0x24, 0x3f, 0x36, 0x6d, 0x0f, 0x3d, 0xda, 0x1b, 0x1f, 0x3f,
  0x3f, 0xb9, 0xa0, 0x3e, 0x20, 0x34, 0x3b, 0xbf, 0xf7, 0x34, 0x7d, 0x3f, 0xe9, 0x17, 0x0a, 0xbf,
  0x58, 0x77, 0xfc, 0x3e, 0x48, 0x86, 0xa3, 0xbb, 0x3b, 0x7b, 0xc4, 0x3d, 0xc9, 0x8e, 0x04, 0x3f,
  0x3c, 0x18, 0x18, 0xbd, 0x0e, 0x6c, 0x9d, 0x3f, 0xb1, 0x41, 0x46, 0x3f, 0x36, 0x2b, 0x1e, 0x3e,
  0x19, 0x8c, 0x9c, 0xbf, 0x1f, 0x71, 0xe7, 0x3e, 0xce, 0x41, 0x9f, 0x3f, 0x5b, 0x41, 0xb1, 0x3e,
  0xf5, 0xd2, 0xdf, 0xbe, 0x7c, 0xf4, 0xca, 0xbd, 0xf2, 0xf2, 0x22, 0x3f, 0x46, 0xa4, 0x2f, 0x3f,
  0x86, 0x96, 0xde, 0x3e, 0xe7, 0x59, 0x95, 0xbe, 0x83, 0x56, 0xe0, 0x3e, 0x7c, 0xdc, 0x5d, 0xbf,
  0x4b, 0x4a, 0xf7, 0x3d, 0x87, 0xe5, 0x60, 0xbd, 0x54, 0x86, 0xa6, 0xbe, 0x25, 0x59, 0xf3, 0x3e,
  0x74, 0x01, 0x24, 0xbf, 0x6c, 0x53, 0x3a, 0x3f, 0x73, 0x06, 0x84, 0x3e, 0x9f, 0x8f, 0x84, 0xbd,
  0x1e, 0x46, 0x18, 0xbe, 0xa6, 0xa6, 0xbd, 0x3e, 0x5c, 0xab, 0x9c, 0xbe, 0x3c, 0xbe, 0x1c, 0x3f,
  0x7b, 0x8d, 0xdc, 0xbe, 0x38, 0xf6, 0x92, 0x3e, 0x21, 0xba, 0x8f, 0xbe, 0x4c, 0x7c, 0x2c, 0xbf,
  0x48, 0x6f, 0x84, 0x3f, 0xb7, 0x48, 0x9c, 0x3d, 0xde, 0x94, 0x1b, 0x3d, 0xb7, 0x65, 0x77, 0x3e,
  0xfa, 0x40, 0x7c, 0x3f, 0x2f, 0x13, 0xbf, 0xbe, 0x5b, 0xf1, 0x19, 0xbe, 0x5c, 0x36, 0x14, 0xbe,
  0xc2, 0x2b, 0x92, 0x3f, 0xea, 0xfd, 0x91, 0x3f, 0x85, 0x9f, 0xe6, 0xbd, 0x71, 0x97, 0x47, 0xbe,
  0x84, 0x1f, 0x05, 0x3b, 0xc3, 0xd9, 0x00, 0x3e, 0xdd, 0xa6, 0x18, 0xbf, 0x6c, 0x6e, 0x88, 0x3f,
  0x77, 0x3e, 0x82, 0x3f, 0xb3, 0x84, 0xcc, 0xbd, 0xb3, 0xf2, 0x8e, 0x3e, 0xbc, 0x5c, 0x9f, 0x3e,
  0x79, 0xf5, 0xce, 0x3e, 0x4f, 0x28, 0xb6, 0x3e, 0xcd, 0x72, 0xed, 0x3c, 0xc6, 0x4e, 0x7e, 0x3f,
  0x2f, 0xac, 0x0e, 0x3d, 0x0a, 0x72, 0xf1, 0xbe, 0x8c, 0x5e, 0xd6, 0x3e, 0xdb, 0x98, 0x26, 0x3d,
  0xdd, 0xf9, 0x4c, 0x3f, 0x0e, 0xea, 0x6b, 0xbc, 0x51, 0xf5, 0xb4, 0x3e, 0xbb, 0x69, 0x87, 0x3f,
  0xe5, 0xa4, 0xb8, 0xbf, 0x47, 0x63, 0x38, 0x3f, 0xad, 0x56, 0x7b, 0x3f, 0x40, 0x24, 0x2b, 0x3f,
  0xc5, 0x04, 0xac, 0xbf, 0x31, 0x9e, 0xc8, 0x3f, 0xcf, 0xf4, 0x7d, 0x3f, 0xfc, 0x70, 0x13, 0x3f,
  0x50, 0xf4, 0x1a, 0xbf, 0xc0, 0x9f, 0x5c, 0xbe, 0x95, 0x09, 0x86, 0xbe, 0x47, 0x88, 0xc9, 0x3e,
  0xd9, 0x3b, 0x97, 0xbd, 0x75, 0x87, 0x78, 0x3f, 0x8c, 0xc3, 0x28, 0xbf, 0xdc, 0xd4, 0xde, 0x3e,
  0x17, 0x62, 0x19, 0xbf, 0x6b, 0xf9, 0x14, 0xbf, 0x5d, 0xb3, 0x4c, 0x3f, 0xa0, 0x8b, 0x21, 0x3f,
  0x6f, 0x6d, 0xce, 0x3e, 0x5f, 0x78, 0x8c, 0xbf, 0x41, 0x0b, 0xe9, 0xbe, 0x15, 0xa2, 0x01, 0x3d,
  0x0c, 0x20, 0x84, 0xbe, 0xd4, 0xfc, 0x32, 0x3e, 0x81, 0x87, 0xac, 0xbe, 0x05, 0xda, 0x95, 0xbf,
  0xd0, 0xac, 0x36, 0x3e, 0x79, 0xf3, 0x17, 0xbd, 0xc6, 0x93, 0xc3, 0xbf, 0x08, 0x95, 0x86, 0x3e,
  0xa8, 0x1e, 0xd2, 0x3e, 0x56, 0x6c, 0x19, 0xbe, 0xe1, 0xa8, 0x6a, 0xbe, 0xda, 0xc3, 0x82, 0xbf,
  0x46, 0x83, 0xa7, 0x3f, 0x23, 0x83, 0x4b, 0xbd, 0xb0, 0x9a, 0x68, 0xbe, 0xcf, 0x8f, 0x5c, 0x3e,
  0xf5, 0x9c, 0xf8, 0xbd, 0x0d, 0x4d, 0xa2, 0x3d, 0x1c, 0x81, 0x1b, 0x3e, 0x13, 0x9c, 0x5a, 0x3f,
  0xc1, 0xa7, 0xb0, 0xbd, 0xbb, 0x42, 0x8e, 0x3e, 0x17, 0xd2, 0xe2, 0x3e, 0x6f, 0x16, 0x14, 0xbe,
  0x42, 0xda, 0x6a, 0x3c, 0x85, 0x35, 0x4d, 0x3e, 0xcc, 0xc1, 0x13, 0x3f, 0x2c, 0xf4, 0xf9, 0x3e,
  0xcf, 0xb6, 0x79, 0x3d, 0x79, 0x70, 0xb6, 0x3c, 0xbf, 0x9c, 0xb0, 0x3d, 0xab, 0xb0, 0xb1, 0xbc,
  0x08, 0x9d, 0x0d, 0xbe, 0x45, 0xcd, 0xa4, 0x3d, 0xcf, 0x33, 0xad, 0x3e, 0x8e, 0x28, 0x62, 0x3f,
  0xa1, 0xe4, 0x98, 0xbe, 0x63, 0xef, 0x73, 0xbe, 0x98, 0x4b, 0xc2, 0x3e, 0x59, 0x74, 0xc2, 0xbd,
  0xd9, 0xf4, 0x7a, 0x3f, 0x79, 0x75, 0x94, 0x3e, 0x1c, 0x5f, 0x6d, 0xbd, 0x1d, 0xd3, 0x10, 0x3e,
  0x1f, 0xf1, 0x03, 0x3f, 0xc9, 0x4f, 0x37, 0x3e, 0xb8, 0xdd, 0x9d, 0x3d, 0x23, 0x76, 0x50, 0xbe,
  0xea, 0xa6, 0xa6, 0xbf, 0xbd, 0x7d, 0xb4, 0xbf, 0x2d, 0x23, 0x16, 0xbf, 0x51, 0x3f, 0x97, 0xbf,
  0xce, 0xb4, 0x92, 0x3d, 0xbd, 0x29, 0xbe, 0xbf, 0xe1, 0xe0, 0x90, 0xbf, 0x02, 0xae, 0x96, 0xbf,
  0x5a, 0x29, 0x8c, 0xbf, 0x2e, 0x6c, 0x62, 0xbf, 0x43, 0xca, 0x53, 0xbf, 0xd9, 0xb9, 0x81, 0xbf,
  0x89, 0x8c, 0xa4, 0xbf, 0x18, 0x92, 0x7b, 0xbf, 0x61, 0xe8, 0xa4, 0x3d, 0xa0, 0x78, 0xcc, 0xbf,
  0xcf, 0xd9, 0x54, 0x3d, 0xac, 0xe4, 0xba, 0xbf, 0x57, 0xa0, 0x79, 0xbf, 0x56, 0x0f, 0xac, 0xbf,
  0x5f, 0x9c, 0xb1, 0xbf, 0xd6, 0x58, 0x89, 0xbc, 0xc0, 0xf5, 0x9c, 0xbf, 0xc3, 0x2f, 0xba, 0xbf,
  0xae, 0x6f, 0x29, 0xbf, 0xc0, 0x93, 0x69, 0xbf, 0x76, 0x8e, 0x93, 0xbf, 0x63, 0x5c, 0x9c, 0xbf,
  0x79, 0x65, 0x04, 0xbf, 0xe5, 0x3c, 0xa2, 0xbf, 0x3a, 0x86, 0x98, 0xbf, 0x64, 0xc2, 0x4c, 0xbe,
  0x58, 0x25, 0x9f, 0x3f, 0x8e, 0x89, 0xb2, 0x3f, 0xe5, 0xda, 0x95, 0x3e, 0xdc, 0x8e, 0xa7, 0xbc,
  0x18, 0x06, 0x8f, 0x3b, 0x55, 0xed, 0x30, 0x3e, 0x3e, 0xcd, 0x71, 0x3f, 0x21, 0x0a, 0x99, 0x3f,
  0xdd, 0x78, 0x49, 0x3f, 0xda, 0x09, 0xb0, 0x3f, 0xc0, 0x10, 0x0a, 0x3f, 0xdb, 0x88, 0x2e, 0x3f,
  0x84, 0xba, 0x10, 0x3f, 0x98, 0x91, 0xbf, 0x3f, 0x5a, 0x53, 0x02, 0x3d, 0x0c, 0xbe, 0x2c, 0x3f,
  0x1b, 0x75, 0x11, 0x3d, 0x4d, 0x49, 0xe5, 0x3d, 0x47, 0xb8, 0xb0, 0x3f, 0xe5, 0x44, 0x87, 0x3d,
  0xe2, 0x04, 0x32, 0x3f, 0x7c, 0x26, 0x22, 0x3c, 0xbf, 0xd1, 0xbb, 0x3e, 0x94, 0x08, 0x81, 0x3f,
  0x5a, 0xe6, 0x06, 0xbc, 0xe1, 0x57, 0xf3, 0x3f, 0x5d, 0x6a, 0x48, 0x3f, 0x53, 0x85, 0x50, 0x3f,
  0xee, 0x85, 0x3d, 0xbf, 0xbe, 0x11, 0xe7, 0x3f, 0x2f, 0x50, 0xbe, 0x3f, 0x59, 0x97, 0x7f, 0x3f,
  0x66, 0x83, 0x9e, 0xbd, 0x66, 0xde, 0xa1, 0x3c, 0x5d, 0xae, 0xe5, 0x3e, 0xd2, 0x05, 0x2a, 0x3e,
  0x43, 0x82, 0x17, 0xbe, 0x10, 0xe3, 0xa2, 0x3e, 0x40, 0xa1, 0x4a, 0x3f, 0x1b, 0xbb, 0x98, 0x3d,
  0x66, 0xea, 0x11, 0xbe, 0xa5, 0xaa, 0x20, 0x3e, 0x19, 0x39, 0x4f, 0x3f, 0x46, 0xc3, 0xc7, 0x3b,
  0xe1, 0xef, 0xc9, 0x3e, 0xa3, 0x2b, 0x44, 0x3e, 0xba, 0xe9, 0x30, 0x3c, 0xff, 0x20, 0xee, 0xbd,
  0x1e, 0xc0, 0x2d, 0xbe, 0xbd, 0xbc, 0xd3, 0x3e, 0x07, 0xaa, 0x9b, 0x3d, 0x67, 0xc3, 0x1b, 0x3f,
  0x95, 0x9c, 0x18, 0x3d, 0xde, 0xbb, 0xd9, 0xbd, 0xc5, 0xef, 0x08, 0x3e, 0xe7, 0xde, 0x07, 0x3d,
  0x1a, 0xf9, 0xa7, 0x3f, 0xfa, 0x51, 0x5c, 0x3e, 0x62, 0x01, 0xa7, 0x3c, 0x01, 0x17, 0x19, 0x3d,
  0xc6, 0xc5, 0x10, 0x3f, 0x50, 0x84, 0x18, 0xbd, 0x36, 0xc8, 0x92, 0x39, 0xaf, 0x1f, 0xef, 0x3c,
  0xc3, 0xb1, 0xb2, 0x3e, 0x16, 0x58, 0xad, 0x3d, 0x78, 0xe3, 0x20, 0xbd, 0xd4, 0x75, 0x1d, 0x3e,
  0x78, 0x43, 0x12, 0xbd, 0xc7, 0x4b, 0x77, 0xbd, 0xa7, 0x04, 0x7e, 0x3f, 0xde, 0xd8, 0xc1, 0x3b,
  0xf0, 0xf8, 0x8a, 0x3e, 0xe7, 0x2f, 0x67, 0x3f, 0x57, 0x46, 0x15, 0x3f, 0x2a, 0x14, 0x2a, 0x3c,
  0xa0, 0x58, 0xa0, 0x3d, 0x34, 0xf7, 0x1e, 0x3f, 0x58, 0xaa, 0xb9, 0x3d, 0x12, 0xd5, 0xc6, 0xbd,
  0x56, 0x00, 0x65, 0x3d, 0x4a, 0x94, 0xd7, 0xbc, 0xed, 0xbf, 0x54, 0x3f, 0x79, 0xea, 0xff, 0x3d,
  0x67, 0x0b, 0xf2, 0x3e, 0xf4, 0x6a, 0x09, 0xbd, 0xde, 0x4c, 0xed, 0x3e, 0x16, 0x66, 0xb8, 0x3e,
  0x6c, 0x1e, 0xfb, 0x3f, 0xd3, 0xf2, 0x76, 0x3f, 0x0b, 0x50, 0x8a, 0x3e, 0x6f, 0x67, 0x37, 0x3e,
  0x20, 0x7b, 0x0a, 0xbe, 0x22, 0xe4, 0x53, 0x3f, 0x3d, 0x90, 0xa9, 0x3e, 0x17, 0x62, 0x3d, 0x3f,
  0xf6, 0xfd, 0xff, 0xff, 0x04, 0x00, 0x00, 0x00, 0x00, 0x01, 0x00, 0x00, 0x40, 0x18, 0xd6, 0xbf,
  0x66, 0xbb, 0xa7, 0xc0, 0x87, 0x09, 0xcb, 0x3f, 0x37, 0x82, 0xe1, 0xbe, 0x34, 0x08, 0xe1, 0x3f,
  0xdd, 0xeb, 0x80, 0xc0, 0x03, 0x8d, 0x88, 0xc0, 0xe8, 0x30, 0x2b, 0xc0, 0x64, 0x1e, 0xbf, 0xbf,
  0x46, 0x3d, 0x96, 0xc0, 0x12, 0xc7, 0x61, 0xc0, 0xc7, 0xaa, 0x77, 0xbf, 0x13, 0x8c, 0x64, 0x40,
  0x11, 0x22, 0x97, 0xc0, 0x6f, 0x4b, 0xe4, 0xbe, 0x17, 0xa6, 0xe3, 0xbf, 0xcf, 0x42, 0xe1, 0xbf,
  0x69, 0xc1, 0xc2, 0x3e, 0x3e, 0x25, 0xd5, 0x3e, 0x3f, 0x8a, 0x80, 0xbf, 0x5a, 0x4f, 0x37, 0xbf,
  0xb4, 0x25, 0x80, 0xbf, 0xf0, 0xc5, 0x67, 0xbf, 0x1d, 0xdb, 0x01, 0x3f, 0xfe, 0xbb, 0xb7, 0xbf,
  0xb0, 0x37, 0x85, 0x3e, 0xf8, 0xd8, 0x99, 0xbf, 0xe3, 0x11, 0x57, 0xbf, 0x39, 0xc2, 0x33, 0xc0,
  0x7b, 0x90, 0x0b, 0x3f, 0x29, 0xbe, 0xd9, 0xbf, 0xdf, 0xba, 0xed, 0x3e, 0x34, 0x32, 0x52, 0x3f,
  0x2a, 0x17, 0x96, 0xbc, 0x97, 0x69, 0xae, 0xbf, 0x09, 0xc1, 0x03, 0xc0, 0x83, 0x8a, 0x58, 0x3f,
  0x9f, 0x9c, 0xaf, 0x3e, 0x1d, 0xea, 0xee, 0x3e, 0x4b, 0x9d, 0xd4, 0xbf, 0xe8, 0x51, 0x31, 0x3f,
  0x7d, 0xbd, 0xa2, 0x3d, 0x69, 0x7a, 0xb9, 0x3e, 0x94, 0x01, 0xcb, 0xbf, 0x08, 0x75, 0x1a, 0xc0,
  0x1c, 0x11, 0xca, 0x3e, 0xd5, 0xd5, 0x65, 0xbf, 0xf1, 0x88, 0x4d, 0xc0, 0x54, 0x89, 0x4d, 0x3f,
  0x84, 0x12, 0xc7, 0x3e, 0xc6, 0x88, 0x49, 0xbf, 0xfd, 0x3a, 0xff, 0x3f, 0x96, 0x08, 0x0c, 0xc0,
  0xb1, 0x05, 0x10, 0x3f, 0x9c, 0x34, 0x09, 0x3f, 0x40, 0x68, 0x03, 0x3f, 0x89, 0xec, 0x6e, 0x3f,
  0xf3, 0xee, 0xd7, 0x3d, 0x65, 0xee, 0xdf, 0x3e, 0x8b, 0x02, 0x0a, 0x40, 0x05, 0x59, 0xdd, 0xbf,
  0x40, 0x63, 0x04, 0x3f, 0x95, 0xf0, 0x19, 0x40, 0x8d, 0x3c, 0x3c, 0x3f, 0x02, 0xff, 0xff, 0xff,
  0x04, 0x00, 0x00, 0x00, 0x10, 0x00, 0x00, 0x00, 0xad, 0xdc, 0x3b, 0x40, 0x8c, 0x9b, 0xc9, 0x3e,
  0x3e, 0x39, 0xbb, 0x3f, 0xda, 0x26, 0x8f, 0xc0, 0x1e, 0xff, 0xff, 0xff, 0x04, 0x00, 0x00, 0x00,
  0x40, 0x00, 0x00, 0x00, 0xfe, 0x69, 0x07, 0x3e, 0xfc, 0x59, 0x19, 0xbe, 0x07, 0xe1, 0x1b, 0x3f,
  0xf7, 0x9e, 0xa4, 0xbf, 0x71, 0xa8, 0x8a, 0x3f, 0xb4, 0x5b, 0xec, 0xbc, 0x50, 0xf4, 0xd6, 0xbd,
  0x0f, 0x67, 0x45, 0xbf, 0x2d, 0x2f, 0x9c, 0xbe, 0x06, 0xb8, 0xe0, 0xbb, 0x94, 0xa5, 0x97, 0x3d,
  0x93, 0x7e, 0x86, 0xbf, 0xc1, 0x9b, 0xd7, 0x3e, 0xbd, 0x8b, 0x57, 0xbc, 0x43, 0xff, 0x89, 0xbf,
  0xf1, 0xae, 0x6f, 0xbf, 0x5c, 0xfa, 0xff, 0xff, 0x60, 0xfa, 0xff, 0xff, 0x0f, 0x00, 0x00, 0x00,
  0x4d, 0x4c, 0x49, 0x52, 0x20, 0x43, 0x6f, 0x6e, 0x76, 0x65, 0x72, 0x74, 0x65, 0x64, 0x2e, 0x00,
  0x01, 0x00, 0x00, 0x00, 0x14, 0x00, 0x00, 0x00, 0x00, 0x00, 0x0e, 0x00, 0x18, 0x00, 0x14, 0x00,
  0x10, 0x00, 0x0c, 0x00, 0x08, 0x00, 0x04, 0x00, 0x0e, 0x00, 0x00, 0x00, 0x14, 0x00, 0x00, 0x00,
  0x1c, 0x00, 0x00, 0x00, 0x24, 0x01, 0x00, 0x00, 0x28, 0x01, 0x00, 0x00, 0x2c, 0x01, 0x00, 0x00,
  0x04, 0x00, 0x00, 0x00, 0x6d, 0x61, 0x69, 0x6e, 0x00, 0x00, 0x00, 0x00, 0x04, 0x00, 0x00, 0x00,
  0xcc, 0x00, 0x00, 0x00, 0x84, 0x00, 0x00, 0x00, 0x50, 0x00, 0x00, 0x00, 0x14, 0x00, 0x00, 0x00,
  0x00, 0x00, 0x0e, 0x00, 0x1a, 0x00, 0x14, 0x00, 0x10, 0x00, 0x0c, 0x00, 0x0b, 0x00, 0x04, 0x00,
  0x0e, 0x00, 0x00, 0x00, 0x1c, 0x00, 0x00, 0x00, 0x00, 0x00, 0x00, 0x09, 0x1c, 0x00, 0x00, 0x00,
  0x20, 0x00, 0x00, 0x00, 0x01, 0x00, 0x00, 0x00, 0x00, 0x00, 0x06, 0x00, 0x08, 0x00, 0x04, 0x00,
  0x06, 0x00, 0x00, 0x00, 0x00, 0x00, 0x80, 0x3f, 0x01, 0x00, 0x00, 0x00, 0x0a, 0x00, 0x00, 0x00,
  0x01, 0x00, 0x00, 0x00, 0x09, 0x00, 0x00, 0x00, 0x9a, 0xff, 0xff, 0xff, 0x10, 0x00, 0x00, 0x00,
  0x00, 0x00, 0x00, 0x08, 0x0c, 0x00, 0x00, 0x00, 0x10, 0x00, 0x00, 0x00, 0x24, 0xfb, 0xff, 0xff,
  0x01, 0x00, 0x00, 0x00, 0x09, 0x00, 0x00, 0x00, 0x03, 0x00, 0x00, 0x00, 0x08, 0x00, 0x00, 0x00,
  0x03, 0x00, 0x00, 0x00, 0x02, 0x00, 0x00, 0x00, 0xca, 0xff, 0xff, 0xff, 0x10, 0x00, 0x00, 0x00,
  0x00, 0x00, 0x00, 0x08, 0x10, 0x00, 0x00, 0x00, 0x14, 0x00, 0x00, 0x00, 0xba, 0xff, 0xff, 0xff,
  0x00, 0x00, 0x00, 0x01, 0x01, 0x00, 0x00, 0x00, 0x08, 0x00, 0x00, 0x00, 0x03, 0x00, 0x00, 0x00,
  0x07, 0x00, 0x00, 0x00, 0x04, 0x00, 0x00, 0x00, 0x01, 0x00, 0x00, 0x00, 0x00, 0x00, 0x0e, 0x00,
  0x16, 0x00, 0x00, 0x00, 0x10, 0x00, 0x0c, 0x00, 0x0b, 0x00, 0x04, 0x00, 0x0e, 0x00, 0x00, 0x00,
  0x18, 0x00, 0x00, 0x00, 0x00, 0x00, 0x00, 0x08, 0x18, 0x00, 0x00, 0x00, 0x1c, 0x00, 0x00, 0x00,
  0x00, 0x00, 0x06, 0x00, 0x08, 0x00, 0x07, 0x00, 0x06, 0x00, 0x00, 0x00, 0x00, 0x00, 0x00, 0x01,
  0x01, 0x00, 0x00, 0x00, 0x07, 0x00, 0x00, 0x00, 0x03, 0x00, 0x00, 0x00, 0x00, 0x00, 0x00, 0x00,
  0x05, 0x00, 0x00, 0x00, 0x06, 0x00, 0x00, 0x00, 0x01, 0x00, 0x00, 0x00, 0x0a, 0x00, 0x00, 0x00,
  0x01, 0x00, 0x00, 0x00, 0x00, 0x00, 0x00, 0x00, 0x0b, 0x00, 0x00, 0x00, 0x04, 0x04, 0x00, 0x00,
  0xb0, 0x03, 0x00, 0x00, 0x5c, 0x03, 0x00, 0x00, 0x1c, 0x03, 0x00, 0x00, 0xdc, 0x02, 0x00, 0x00,
  0x8c, 0x02, 0x00, 0x00, 0x20, 0x02, 0x00, 0x00, 0x80, 0x01, 0x00, 0x00, 0xe0, 0x00, 0x00, 0x00,
  0x60, 0x00, 0x00, 0x00, 0x04, 0x00, 0x00, 0x00, 0x3e, 0xfc, 0xff, 0xff, 0x00, 0x00, 0x00, 0x01,
  0x14, 0x00, 0x00, 0x00, 0x1c, 0x00, 0x00, 0x00, 0x1c, 0x00, 0x00, 0x00, 0x0b, 0x00, 0x00, 0x00,
  0x34, 0x00, 0x00, 0x00, 0x02, 0x00, 0x00, 0x00, 0xff, 0xff, 0xff, 0xff, 0x04, 0x00, 0x00, 0x00,
  0x28, 0xfc, 0xff, 0xff, 0x1b, 0x00, 0x00, 0x00, 0x53, 0x74, 0x61, 0x74, 0x65, 0x66, 0x75, 0x6c,
  0x50, 0x61, 0x72, 0x74, 0x69, 0x74, 0x69, 0x6f, 0x6e, 0x65, 0x64, 0x43, 0x61, 0x6c, 0x6c, 0x5f,
  0x31, 0x3a, 0x30, 0x00, 0x02, 0x00, 0x00, 0x00, 0x01, 0x00, 0x00, 0x00, 0x04, 0x00, 0x00, 0x00,
  0x96, 0xfc, 0xff, 0xff, 0x00, 0x00, 0x00, 0x01, 0x14, 0x00, 0x00, 0x00, 0x1c, 0x00, 0x00, 0x00,
  0x1c, 0x00, 0x00, 0x00, 0x0a, 0x00, 0x00, 0x00, 0x58, 0x00, 0x00, 0x00, 0x02, 0x00, 0x00, 0x00,
  0xff, 0xff, 0xff, 0xff, 0x04, 0x00, 0x00, 0x00, 0x80, 0xfc, 0xff, 0xff, 0x3e, 0x00, 0x00, 0x00,
  0x73, 0x65, 0x71, 0x75, 0x65, 0x6e, 0x74, 0x69, 0x61, 0x6c, 0x5f, 0x31, 0x5f, 0x31, 0x2f, 0x6f,
  0x75, 0x74, 0x70, 0x75, 0x74, 0x5f, 0x31, 0x2f, 0x4d, 0x61, 0x74, 0x4d, 0x75, 0x6c, 0x3b, 0x73,
  0x65, 0x71, 0x75, 0x65, 0x6e, 0x74, 0x69, 0x61, 0x6c, 0x5f, 0x31, 0x5f, 0x31, 0x2f, 0x6f, 0x75,
  0x74, 0x70, 0x75, 0x74, 0x5f, 0x31, 0x2f, 0x42, 0x69, 0x61, 0x73, 0x41, 0x64, 0x64, 0x00, 0x00,
  0x02, 0x00, 0x00, 0x00, 0x01, 0x00, 0x00, 0x00, 0x04, 0x00, 0x00, 0x00, 0x12, 0xfd, 0xff, 0xff,
  0x00, 0x00, 0x00, 0x01, 0x14, 0x00, 0x00, 0x00, 0x1c, 0x00, 0x00, 0x00, 0x1c, 0x00, 0x00, 0x00,
  0x09, 0x00, 0x00, 0x00, 0x78, 0x00, 0x00, 0x00, 0x02, 0x00, 0x00, 0x00, 0xff, 0xff, 0xff, 0xff,
  0x10, 0x00, 0x00, 0x00, 0xfc, 0xfc, 0xff, 0xff, 0x5e, 0x00, 0x00, 0x00, 0x73, 0x65, 0x71, 0x75,
  0x65, 0x6e, 0x74, 0x69, 0x61, 0x6c, 0x5f, 0x31, 0x5f, 0x31, 0x2f, 0x68, 0x69, 0x64, 0x64, 0x65,
  0x6e, 0x32, 0x5f, 0x31, 0x2f, 0x4d, 0x61, 0x74, 0x4d, 0x75, 0x6c, 0x3b, 0x73, 0x65, 0x71, 0x75,
  0x65, 0x6e, 0x74, 0x69, 0x61, 0x6c, 0x5f, 0x31, 0x5f, 0x31, 0x2f, 0x68, 0x69, 0x64, 0x64, 0x65,
  0x6e, 0x32, 0x5f, 0x31, 0x2f, 0x52, 0x65, 0x6c, 0x75, 0x3b, 0x73, 0x65, 0x71, 0x75, 0x65, 0x6e,
  0x74, 0x69, 0x61, 0x6c, 0x5f, 0x31, 0x5f, 0x31, 0x2f, 0x68, 0x69, 0x64, 0x64, 0x65, 0x6e, 0x32,
  0x5f, 0x31, 0x2f, 0x42, 0x69, 0x61, 0x73, 0x41, 0x64, 0x64, 0x00, 0x00, 0x02, 0x00, 0x00, 0x00,
  0x01, 0x00, 0x00, 0x00, 0x10, 0x00, 0x00, 0x00, 0xae, 0xfd, 0xff, 0xff, 0x00, 0x00, 0x00, 0x01,
  0x14, 0x00, 0x00, 0x00, 0x1c, 0x00, 0x00, 0x00, 0x1c, 0x00, 0x00, 0x00, 0x08, 0x00, 0x00, 0x00,
  0x78, 0x00, 0x00, 0x00, 0x02, 0x00, 0x00, 0x00, 0xff, 0xff, 0xff, 0xff, 0x20, 0x00, 0x00, 0x00,
  0x98, 0xfd, 0xff, 0xff, 0x5e, 0x00, 0x00, 0x00, 0x73, 0x65, 0x71, 0x75, 0x65, 0x6e, 0x74, 0x69,
  0x61, 0x6c, 0x5f, 0x31, 0x5f, 0x31, 0x2f, 0x68, 0x69, 0x64, 0x64, 0x65, 0x6e, 0x31, 0x5f, 0x31,
  0x2f, 0x4d, 0x61, 0x74, 0x4d, 0x75, 0x6c, 0x3b, 0x73, 0x65, 0x71, 0x75, 0x65, 0x6e, 0x74, 0x69,
  0x61, 0x6c, 0x5f, 0x31, 0x5f, 0x31, 0x2f, 0x68, 0x69, 0x64, 0x64, 0x65, 0x6e, 0x31, 0x5f, 0x31,
  0x2f, 0x52, 0x65, 0x6c, 0x75, 0x3b, 0x73, 0x65, 0x71, 0x75, 0x65, 0x6e, 0x74, 0x69, 0x61, 0x6c,
  0x5f, 0x31, 0x5f, 0x31, 0x2f, 0x68, 0x69, 0x64, 0x64, 0x65, 0x6e, 0x31, 0x5f, 0x31, 0x2f, 0x42,
  0x69, 0x61, 0x73, 0x41, 0x64, 0x64, 0x00, 0x00, 0x02, 0x00, 0x00, 0x00, 0x01, 0x00, 0x00, 0x00,
  0x20, 0x00, 0x00, 0x00, 0x9a, 0xfe, 0xff, 0xff, 0x00, 0x00, 0x00, 0x01, 0x10, 0x00, 0x00, 0x00,
  0x10, 0x00, 0x00, 0x00, 0x07, 0x00, 0x00, 0x00, 0x4c, 0x00, 0x00, 0x00, 0x24, 0xfe, 0xff, 0xff,
  0x3e, 0x00, 0x00, 0x00, 0x73, 0x65, 0x71, 0x75, 0x65, 0x6e, 0x74, 0x69, 0x61, 0x6c, 0x5f, 0x31,
  0x5f, 0x31, 0x2f, 0x68, 0x69, 0x64, 0x64, 0x65, 0x6e, 0x31, 0x5f, 0x31, 0x2f, 0x52, 0x65, 0x6c,
  0x75, 0x3b, 0x73, 0x65, 0x71, 0x75, 0x65, 0x6e, 0x74, 0x69, 0x61, 0x6c, 0x5f, 0x31, 0x5f, 0x31,
  0x2f, 0x68, 0x69, 0x64, 0x64, 0x65, 0x6e, 0x31, 0x5f, 0x31, 0x2f, 0x42, 0x69, 0x61, 0x73, 0x41,
  0x64, 0x64, 0x00, 0x00, 0x01, 0x00, 0x00, 0x00, 0x20, 0x00, 0x00, 0x00, 0x02, 0xff, 0xff, 0xff,
  0x00, 0x00, 0x00, 0x01, 0x10, 0x00, 0x00, 0x00, 0x10, 0x00, 0x00, 0x00, 0x06, 0x00, 0x00, 0x00,
  0x2c, 0x00, 0x00, 0x00, 0x8c, 0xfe, 0xff, 0xff, 0x1f, 0x00, 0x00, 0x00, 0x73, 0x65, 0x71, 0x75,
  0x65, 0x6e, 0x74, 0x69, 0x61, 0x6c, 0x5f, 0x31, 0x5f, 0x31, 0x2f, 0x68, 0x69, 0x64, 0x64, 0x65,
  0x6e, 0x31, 0x5f, 0x31, 0x2f, 0x4d, 0x61, 0x74, 0x4d, 0x75, 0x6c, 0x00, 0x02, 0x00, 0x00, 0x00,
  0x20, 0x00, 0x00, 0x00, 0x06, 0x00, 0x00, 0x00, 0x4e, 0xff, 0xff, 0xff, 0x00, 0x00, 0x00, 0x01,
  0x10, 0x00, 0x00, 0x00, 0x10, 0x00, 0x00, 0x00, 0x05, 0x00, 0x00, 0x00, 0x1c, 0x00, 0x00, 0x00,
  0xd8, 0xfe, 0xff, 0xff, 0x0f, 0x00, 0x00, 0x00, 0x61, 0x72, 0x69, 0x74, 0x68, 0x2e, 0x63, 0x6f,
  0x6e, 0x73, 0x74, 0x61, 0x6e, 0x74, 0x33, 0x00, 0x02, 0x00, 0x00, 0x00, 0x10, 0x00, 0x00, 0x00,
  0x20, 0x00, 0x00, 0x00, 0x8a, 0xff, 0xff, 0xff, 0x00, 0x00, 0x00, 0x01, 0x10, 0x00, 0x00, 0x00,
  0x10, 0x00, 0x00, 0x00, 0x04, 0x00, 0x00, 0x00, 0x1c, 0x00, 0x00, 0x00, 0x14, 0xff, 0xff, 0xff,
  0x0f, 0x00, 0x00, 0x00, 0x61, 0x72, 0x69, 0x74, 0x68, 0x2e, 0x63, 0x6f, 0x6e, 0x73, 0x74, 0x61,
  0x6e, 0x74, 0x32, 0x00, 0x02, 0x00, 0x00, 0x00, 0x04, 0x00, 0x00, 0x00, 0x10, 0x00, 0x00, 0x00,
  0xc6, 0xff, 0xff, 0xff, 0x00, 0x00, 0x00, 0x01, 0x10, 0x00, 0x00, 0x00, 0x10, 0x00, 0x00, 0x00,
  0x03, 0x00, 0x00, 0x00, 0x1c, 0x00, 0x00, 0x00, 0x50, 0xff, 0xff, 0xff, 0x0f, 0x00, 0x00, 0x00,
  0x61, 0x72, 0x69, 0x74, 0x68, 0x2e, 0x63, 0x6f, 0x6e, 0x73, 0x74, 0x61, 0x6e, 0x74, 0x31, 0x00,
  0x01, 0x00, 0x00, 0x00, 0x04, 0x00, 0x00, 0x00, 0x00, 0x00, 0x16, 0x00, 0x18, 0x00, 0x14, 0x00,
  0x00, 0x00, 0x10, 0x00, 0x0c, 0x00, 0x08, 0x00, 0x00, 0x00, 0x00, 0x00, 0x00, 0x00, 0x07, 0x00,
  0x16, 0x00, 0x00, 0x00, 0x00, 0x00, 0x00, 0x01, 0x10, 0x00, 0x00, 0x00, 0x10, 0x00, 0x00, 0x00,
  0x02, 0x00, 0x00, 0x00, 0x1c, 0x00, 0x00, 0x00, 0xa0, 0xff, 0xff, 0xff, 0x0e, 0x00, 0x00, 0x00,
  0x61, 0x72, 0x69, 0x74, 0x68, 0x2e, 0x63, 0x6f, 0x6e, 0x73, 0x74, 0x61, 0x6e, 0x74, 0x00, 0x00,
  0x01, 0x00, 0x00, 0x00, 0x10, 0x00, 0x00, 0x00, 0x00, 0x00, 0x16, 0x00, 0x1c, 0x00, 0x18, 0x00,
  0x00, 0x00, 0x14, 0x00, 0x10, 0x00, 0x0c, 0x00, 0x00, 0x00, 0x00, 0x00, 0x08, 0x00, 0x07, 0x00,
  0x16, 0x00, 0x00, 0x00, 0x00, 0x00, 0x00, 0x01, 0x14, 0x00, 0x00, 0x00, 0x20, 0x00, 0x00, 0x00,
  0x20, 0x00, 0x00, 0x00, 0x01, 0x00, 0x00, 0x00, 0x40, 0x00, 0x00, 0x00, 0x02, 0x00, 0x00, 0x00,
  0xff, 0xff, 0xff, 0xff, 0x06, 0x00, 0x00, 0x00, 0x04, 0x00, 0x04, 0x00, 0x04, 0x00, 0x00, 0x00,
  0x20, 0x00, 0x00, 0x00, 0x73, 0x65, 0x72, 0x76, 0x69, 0x6e, 0x67, 0x5f, 0x64, 0x65, 0x66, 0x61,
  0x75, 0x6c, 0x74, 0x5f, 0x6b, 0x65, 0x72, 0x61, 0x73, 0x5f, 0x74, 0x65, 0x6e, 0x73, 0x6f, 0x72,
  0x5f, 0x36, 0x3a, 0x30, 0x00, 0x00, 0x00, 0x00, 0x02, 0x00, 0x00, 0x00, 0x01, 0x00, 0x00, 0x00,
  0x06, 0x00, 0x00, 0x00, 0x02, 0x00, 0x00, 0x00, 0x20, 0x00, 0x00, 0x00, 0x04, 0x00, 0x00, 0x00,
  0xf4, 0xff, 0xff, 0xff, 0x19, 0x00, 0x00, 0x00, 0x00, 0x00, 0x00, 0x19, 0x0c, 0x00, 0x0c, 0x00,
  0x0b, 0x00, 0x00, 0x00, 0x00, 0x00, 0x04, 0x00, 0x0c, 0x00, 0x00, 0x00, 0x09, 0x00, 0x00, 0x00,
  0x00, 0x00, 0x00, 0x09
};
const unsigned int motor_model_len = 5396;

// Model information
#define NUM_FEATURES 6
#define NUM_CLASSES 4

// Class names
const char* class_names[] = {
  "Nivel 0",
  "Nivel 1",
  "Nivel 2",
  "Nivel 3"
};

#endif // MOTOR_MODEL_H
