// Motor Classification Model - TinyML
// Auto-generated file - Do not edit manually
// Model trained on MPU6050 data (Accel + Gyro)

#ifndef MOTOR_MODEL_H
#define MOTOR_MODEL_H

const unsigned char motor_model[] = {
  0x1c, 0x00, 0x00, 0x00, 0x54, 0x46, 0x4c, 0x33, 0x14, 0x00, 0x20, 0x00, 0x1c, 0x00, 0x18, 0x00,
  0x14, 0x00, 0x10, 0x00, 0x0c, 0x00, 0x00, 0x00, 0x08, 0x00, 0x04, 0x00, 0x14, 0x00, 0x00, 0x00,
  0x1c, 0x00, 0x00, 0x00, 0x98, 0x00, 0x00, 0x00, 0xf0, 0x00, 0x00, 0x00, 0xe0, 0x0e, 0x00, 0x00,
  0xf0, 0x0e, 0x00, 0x00, 0x9c, 0x14, 0x00, 0x00, 0x03, 0x00, 0x00, 0x00, 0x01, 0x00, 0x00, 0x00,
  0x10, 0x00, 0x00, 0x00, 0x00, 0x00, 0x0a, 0x00, 0x10, 0x00, 0x0c, 0x00, 0x08, 0x00, 0x04, 0x00,
  0x0a, 0x00, 0x00, 0x00, 0x0c, 0x00, 0x00, 0x00, 0x1c, 0x00, 0x00, 0x00, 0x3c, 0x00, 0x00, 0x00,
  0x0f, 0x00, 0x00, 0x00, 0x73, 0x65, 0x72, 0x76, 0x69, 0x6e, 0x67, 0x5f, 0x64, 0x65, 0x66, 0x61,
  0x75, 0x6c, 0x74, 0x00, 0x01, 0x00, 0x00, 0x00, 0x04, 0x00, 0x00, 0x00, 0x90, 0xff, 0xff, 0xff,
  0x0a, 0x00, 0x00, 0x00, 0x04, 0x00, 0x00, 0x00, 0x08, 0x00, 0x00, 0x00, 0x6f, 0x75, 0x74, 0x70,
  0x75, 0x74, 0x5f, 0x30, 0x00, 0x00, 0x00, 0x00, 0x01, 0x00, 0x00, 0x00, 0x04, 0x00, 0x00, 0x00,
  0x06, 0xf1, 0xff, 0xff, 0x04, 0x00, 0x00, 0x00, 0x0c, 0x00, 0x00, 0x00, 0x6b, 0x65, 0x72, 0x61,
  0x73, 0x5f, 0x74, 0x65, 0x6e, 0x73, 0x6f, 0x72, 0x00, 0x00, 0x00, 0x00, 0x02, 0x00, 0x00, 0x00,
  0x34, 0x00, 0x00, 0x00, 0x04, 0x00, 0x00, 0x00, 0xdc, 0xff, 0xff, 0xff, 0x0d, 0x00, 0x00, 0x00,
  0x04, 0x00, 0x00, 0x00, 0x13, 0x00, 0x00, 0x00, 0x43, 0x4f, 0x4e, 0x56, 0x45, 0x52, 0x53, 0x49,
  0x4f, 0x4e, 0x5f, 0x4d, 0x45, 0x54, 0x41, 0x44, 0x41, 0x54, 0x41, 0x00, 0x08, 0x00, 0x0c, 0x00,
  0x08, 0x00, 0x04, 0x00, 0x08, 0x00, 0x00, 0x00, 0x0c, 0x00, 0x00, 0x00, 0x04, 0x00, 0x00, 0x00,
  0x13, 0x00, 0x00, 0x00, 0x6d, 0x69, 0x6e, 0x5f, 0x72, 0x75, 0x6e, 0x74, 0x69, 0x6d, 0x65, 0x5f,
  0x76, 0x65, 0x72, 0x73, 0x69, 0x6f, 0x6e, 0x00, 0x0e, 0x00, 0x00, 0x00, 0xec, 0x0d, 0x00, 0x00,
  0xe4, 0x0d, 0x00, 0x00, 0x94, 0x0d, 0x00, 0x00, 0x74, 0x0d, 0x00, 0x00, 0x64, 0x0c, 0x00, 0x00,
  0x54, 0x04, 0x00, 0x00, 0x44, 0x01, 0x00, 0x00, 0xb4, 0x00, 0x00, 0x00, 0xac, 0x00, 0x00, 0x00,
  0xa4, 0x00, 0x00, 0x00, 0x9c, 0x00, 0x00, 0x00, 0x94, 0x00, 0x00, 0x00, 0x74, 0x00, 0x00, 0x00,
  0x04, 0x00, 0x00, 0x00, 0xba, 0xf1, 0xff, 0xff, 0x04, 0x00, 0x00, 0x00, 0x60, 0x00, 0x00, 0x00,
  0x10, 0x00, 0x00, 0x00, 0x00, 0x00, 0x00, 0x00, 0x08, 0x00, 0x0e, 0x00, 0x08, 0x00, 0x04, 0x00,
  0x08, 0x00, 0x00, 0x00, 0x10, 0x00, 0x00, 0x00, 0x24, 0x00, 0x00, 0x00, 0x00, 0x00, 0x06, 0x00,
  0x08, 0x00, 0x04, 0x00, 0x06, 0x00, 0x00, 0x00, 0x04, 0x00, 0x00, 0x00, 0x00, 0x00, 0x00, 0x00,
  0x0c, 0x00, 0x18, 0x00, 0x14, 0x00, 0x10, 0x00, 0x0c, 0x00, 0x04, 0x00, 0x0c, 0x00, 0x00, 0x00,
  0x2c, 0x56, 0xf3, 0x32, 0x4d, 0x8a, 0x73, 0x42, 0x02, 0x00, 0x00, 0x00, 0x02, 0x00, 0x00, 0x00,
  0x04, 0x00, 0x00, 0x00, 0x06, 0x00, 0x00, 0x00, 0x32, 0x2e, 0x32, 0x30, 0x2e, 0x30, 0x00, 0x00,
  0x26, 0xf2, 0xff, 0xff, 0x04, 0x00, 0x00, 0x00, 0x10, 0x00, 0x00, 0x00, 0x31, 0x2e, 0x35, 0x2e,
  0x30, 0x00, 0x00, 0x00, 0x00, 0x00, 0x00, 0x00, 0x00, 0x00, 0x00, 0x00, 0x44, 0xed, 0xff, 0xff,
  0x48, 0xed, 0xff, 0xff, 0x4c, 0xed, 0xff, 0xff, 0x50, 0xed, 0xff, 0xff, 0x52, 0xf2, 0xff, 0xff,
  0x04, 0x00, 0x00, 0x00, 0x80, 0x00, 0x00, 0x00, 0xc7, 0xd6, 0x03, 0xbe, 0xaa, 0xb7, 0xee, 0xbe,
  0xdb, 0xc6, 0x85, 0xbe, 0xe5, 0xee, 0x07, 0xbf, 0xbd, 0xda, 0x3b, 0xbf, 0x8e, 0x1f, 0x4e, 0xbf,
  0x71, 0xf0, 0x53, 0xbe, 0xb3, 0xdf, 0x5d, 0xbe, 0xf1, 0xa7, 0x9e, 0xbe, 0xc5, 0xcf, 0x27, 0xbf,
  0xda, 0x8c, 0xc5, 0xbe, 0xdd, 0xa0, 0xaf, 0xbe, 0xac, 0x67, 0x60, 0xbe, 0x2f, 0x60, 0x9d, 0xbd,
  0x1b, 0x50, 0x16, 0x3d, 0xcf, 0x08, 0xbc, 0xbe, 0xdb, 0x42, 0xcf, 0xbe, 0xad, 0x72, 0x6e, 0xbe,
  0x0c, 0x36, 0x96, 0xbe, 0x70, 0xba, 0x7b, 0xbf, 0x58, 0x4d, 0x26, 0xbf, 0x59, 0xed, 0x6b, 0x3e,
  0xe2, 0xda, 0xcf, 0xbe, 0x09, 0xff, 0x86, 0x3e, 0xd0, 0xb9, 0x87, 0xbf, 0xfc, 0xcc, 0x92, 0xbe,
  0x36, 0xb6, 0x51, 0xbf, 0x09, 0xd7, 0x04, 0xbf, 0xca, 0xd6, 0xb1, 0xbe, 0x2b, 0x57, 0xaa, 0x3d,
  0x51, 0x04, 0x12, 0xbe, 0xcc, 0x5a, 0xab, 0xbd, 0xde, 0xf2, 0xff, 0xff, 0x04, 0x00, 0x00, 0x00,
  0x00, 0x03, 0x00, 0x00, 0xe9, 0xaa, 0x0e, 0x3f, 0xca, 0x87, 0x01, 0x3f, 0x69, 0xc4, 0x9d, 0x3e,
  0xc7, 0x45, 0xa7, 0xbe, 0xb2, 0xc9, 0xab, 0x3e, 0x13, 0xd7, 0x10, 0xbf, 0xb3, 0xd0, 0xe2, 0xbd,
  0x5e, 0x8f, 0x54, 0xbe, 0x2c, 0x02, 0x4a, 0x3e, 0x48, 0x55, 0x3b, 0x3e, 0x38, 0x7c, 0x98, 0x3d,
  0x16, 0xc9, 0x8f, 0x3f, 0x6e, 0x63, 0x88, 0xbe, 0xe9, 0xba, 0xb0, 0xbc, 0x6d, 0x8d, 0x1f, 0x3e,
  0x82, 0x60, 0xcc, 0x3e, 0x13, 0x89, 0x45, 0x3e, 0xe2, 0x55, 0x9b, 0x3f, 0x7d, 0x82, 0xbb, 0x3e,
  0x89, 0x90, 0xba, 0x3e, 0xbf, 0x15, 0x73, 0x3f, 0xe8, 0xa0, 0x95, 0x3e, 0xf5, 0x45, 0x24, 0x3e,
  0x17, 0x21, 0x9e, 0xbe, 0x44, 0x3a, 0x4c, 0xbe, 0xfc, 0xc2, 0xd8, 0x3e, 0xac, 0x61, 0xce, 0x3e,
  0xd3, 0x70, 0xa8, 0x3c, 0x40, 0xaf, 0x14, 0xbf, 0xd8, 0x92, 0x1d, 0x3d, 0x05, 0x60, 0xc9, 0x3e,
  0x3b, 0x9d, 0xcd, 0x3e, 0x6e, 0xd9, 0x42, 0xbe, 0x14, 0x15, 0x2b, 0x3f, 0x35, 0x6c, 0x78, 0xbe,
  0xfd, 0x16, 0x2d, 0xbf, 0xa0, 0xa1, 0x47, 0xbf, 0x02, 0x96, 0x75, 0x3d, 0xa5, 0x44, 0x66, 0xbe,
  0x2e, 0xe6, 0x78, 0x3d, 0x66, 0xa4, 0x12, 0x3f, 0x10, 0x28, 0x80, 0x3d, 0xdd, 0x07, 0xc6, 0x3e,
  0x02, 0x17, 0x05, 0xbf, 0x47, 0x2d, 0x95, 0xbe, 0x5b, 0x3c, 0x5d, 0xbd, 0x0b, 0xf9, 0x4d, 0x3e,
  0xd9, 0xa1, 0x9f, 0x3f, 0xa1, 0x55, 0xf1, 0xbe, 0x07, 0x81, 0xd1, 0x3e, 0x9d, 0xa6, 0x1f, 0xbc,
  0x15, 0xb0, 0x37, 0xbf, 0xe2, 0xfe, 0xbf, 0x3e, 0x9b, 0xc0, 0x77, 0x3f, 0xe2, 0x7f, 0x90, 0xbe,
  0x62, 0x82, 0xd5, 0x3c, 0xf0, 0xa3, 0x9f, 0x3d, 0x3d, 0x71, 0x4e, 0x3f, 0x02, 0xf2, 0x73, 0x3e,
  0xec, 0xbe, 0x5a, 0x3f, 0xe6, 0xf0, 0x1d, 0xbe, 0xe7, 0xb2, 0x0d, 0x3e, 0x60, 0x82, 0x42, 0x3d,
  0x3c, 0xd9, 0x6b, 0x3f, 0x0f, 0x88, 0x2e, 0xbf, 0x85, 0x5e, 0x01, 0x3e, 0x64, 0x8f, 0x34, 0x3f,
  0x51, 0x33, 0x03, 0x3f, 0xbb, 0x12, 0xdc, 0x3d, 0x44, 0x9b, 0xd2, 0xbe, 0x7c, 0x89, 0xa3, 0xbe,
  0x44, 0xdd, 0xd8, 0x3e, 0x35, 0x6d, 0xaa, 0xbe, 0x90, 0x35, 0x55, 0xbf, 0x6a, 0x72, 0x00, 0xbf,
  0x10, 0x4e, 0x98, 0x3e, 0xa1, 0x4f, 0xc0, 0x3c, 0x64, 0xb0, 0x13, 0xbf, 0xf1, 0x88, 0x62, 0xbe,
  0xe6, 0xdd, 0xd7, 0x3e, 0x21, 0x5c, 0x91, 0xbe, 0x9c, 0x1e, 0xd9, 0x3e, 0x5e, 0xc9, 0x5f, 0x3e,
  0xe3, 0x60, 0x35, 0x3f, 0xc7, 0x53, 0x15, 0x3c, 0x84, 0x8b, 0x36, 0xbd, 0xf8, 0x00, 0x83, 0xbe,
  0x81, 0x4a, 0x34, 0xbe, 0x2e, 0x8e, 0x82, 0xbc, 0x25, 0x24, 0x8e, 0xbf, 0xb8, 0xef, 0x6e, 0x3e,
  0x95, 0x4b, 0xdf, 0x3d, 0x31, 0x68, 0x60, 0xbd, 0x9b, 0xbf, 0xf5, 0xbe, 0xde, 0x61, 0x7d, 0xbc,
  0xb7, 0x0a, 0x84, 0xbf, 0x61, 0x31, 0x53, 0xbd, 0x32, 0xfe, 0x74, 0xbe, 0x98, 0xd2, 0x7d, 0x3d,
  0xd9, 0xe0, 0x83, 0xbf, 0xaa, 0x20, 0x15, 0x3e, 0xba, 0x2f, 0x5e, 0xbf, 0x1b, 0x5c, 0xf1, 0xbd,
  0x77, 0x48, 0xb4, 0xbe, 0x49, 0x5b, 0x0e, 0xbf, 0x63, 0xcf, 0x96, 0x3e, 0xff, 0x1a, 0xfd, 0x3e,
  0x9e, 0x03, 0xab, 0x3e, 0xb2, 0x2b, 0x6a, 0x3f, 0xa5, 0xb8, 0x8f, 0x3e, 0xc9, 0xcb, 0xb7, 0x3e,
  0xfb, 0xbb, 0x50, 0xbe, 0x0c, 0x27, 0xcf, 0xbe, 0x44, 0x2a, 0xc3, 0xbd, 0xb8, 0x03, 0x9b, 0xbd,
  0xcf, 0xf1, 0x03, 0x3e, 0xfc, 0x57, 0x9a, 0xbd, 0xaf, 0xd3, 0x90, 0x3f, 0x5d, 0x79, 0x81, 0x3e,
  0x30, 0x24, 0x85, 0xbe, 0xd8, 0xe9, 0x9a, 0xbd, 0x10, 0x85, 0xd6, 0xbe, 0xc4, 0xe2, 0x66, 0x3e,
  0x09, 0x06, 0x67, 0xbf, 0x35, 0x17, 0xb4, 0x3c, 0xad, 0xf8, 0x01, 0x3f, 0x1f, 0xea, 0xe9, 0x3d,
  0x11, 0x14, 0xe4, 0x3e, 0x04, 0xd4, 0xc5, 0x3d, 0x87, 0x3a, 0x99, 0x3e, 0xee, 0x15, 0x57, 0xbd,
  0xc4, 0xf8, 0x5b, 0x3e, 0x3b, 0xb7, 0xe6, 0xbe, 0x2e, 0x13, 0x42, 0xbf, 0x50, 0x20, 0x71, 0xbf,
  0xa6, 0x75, 0xeb, 0x3e, 0x92, 0xe3, 0x5e, 0xbc, 0xc4, 0x73, 0x32, 0xbe, 0x62, 0x3b, 0xa0, 0x3c,
  0xb3, 0xe3, 0xb0, 0x3e, 0x32, 0x3d, 0x7d, 0x3d, 0x9f, 0x45, 0x87, 0x3e, 0xb2, 0x99, 0xeb, 0xbc,
  0x01, 0x37, 0x28, 0x3e, 0xbd, 0xcd, 0xbc, 0xbe, 0xca, 0x67, 0x7e, 0x3e, 0xbe, 0x6b, 0x9b, 0x3d,
  0xb2, 0x70, 0x35, 0xbe, 0xd6, 0x66, 0x1c, 0xbf, 0x10, 0xb2, 0xa8, 0x3d, 0xb7, 0x63, 0x14, 0xbf,
  0x41, 0x23, 0xda, 0xbe, 0xd7, 0x49, 0x3c, 0x3e, 0xf5, 0x6b, 0x5d, 0x3f, 0x84, 0x56, 0x9f, 0x3e,
  0x95, 0x52, 0x22, 0xbf, 0x03, 0x75, 0x9d, 0x3e, 0x98, 0x9e, 0x11, 0x3f, 0xf8, 0x32, 0xea, 0x3d,
  0x43, 0xbb, 0x34, 0x3a, 0x58, 0x67, 0x14, 0x3f, 0xb7, 0x4f, 0xf2, 0x3e, 0x03, 0x97, 0x07, 0x3f,
  0x9c, 0x71, 0xd2, 0x3e, 0x07, 0x13, 0x9a, 0x3e, 0xbe, 0xfb, 0x87, 0xbf, 0x68, 0xdc, 0x59, 0xbe,
  0xa3, 0xd8, 0xcf, 0x3e, 0x80, 0x34, 0xcd, 0x3c, 0x73, 0xec, 0x34, 0xbf, 0x45, 0x47, 0xc4, 0xbe,
  0x12, 0x6e, 0xfa, 0x3e, 0x08, 0x48, 0xbe, 0xbe, 0xc7, 0x1e, 0x10, 0xbf, 0x14, 0x04, 0x90, 0xbe,
  0x3f, 0xaf, 0x01, 0xbf, 0x6e, 0xfb, 0x85, 0x3e, 0xce, 0xb1, 0x46, 0xbe, 0xcf, 0x0e, 0x0a, 0xbd,
  0xcc, 0xa6, 0x03, 0xbf, 0xcf, 0xff, 0x65, 0x3f, 0x01, 0xd2, 0x5a, 0x3d, 0xec, 0xcb, 0x71, 0x3d,
  0xca, 0xd0, 0x1f, 0xbe, 0x94, 0x6f, 0x55, 0xbf, 0x22, 0xf7, 0x08, 0xbe, 0xaf, 0x87, 0x19, 0x3d,
  0x96, 0x6f, 0x07, 0x3e, 0xbf, 0x56, 0x4d, 0x3d, 0x8a, 0xb0, 0x5b, 0xbf, 0x0d, 0xab, 0x9f, 0xbd,
  0xfc, 0xa2, 0x1b, 0xbf, 0xea, 0xf5, 0xff, 0xff, 0x04, 0x00, 0x00, 0x00, 0x00, 0x08, 0x00, 0x00,
  0xff, 0xd4, 0xb7, 0x3e, 0x16, 0xf7, 0x55, 0xbf, 0xb3, 0x5b, 0xd0, 0xbe, 0xed, 0xfa, 0xd6, 0x3e,
  0x37, 0x19, 0xea, 0x3e, 0x63, 0x99, 0x79, 0xbf, 0xf1, 0xb3, 0x81, 0x3e, 0x2a, 0x54, 0xe3, 0x3d,
  0xdf, 0x28, 0x1a, 0xbd, 0x45, 0x92, 0x87, 0xbf, 0x18, 0x37, 0xe0, 0xbd, 0x37, 0xbc, 0x9b, 0x3d,
  0x13, 0x9b, 0xe7, 0xbe, 0x8d, 0xf2, 0x04, 0x3f, 0x1e, 0x5e, 0xde, 0xbe, 0xd4, 0x42, 0xa3, 0xbe,
  0xc7, 0x10, 0xfe, 0xbe, 0x8b, 0xbd, 0x7b, 0x3e, 0xc7, 0xbc, 0x3e, 0xbe, 0xb1, 0xfb, 0x69, 0xbf,
  0x2d, 0xe6, 0x0e, 0xbf, 0x27, 0x77, 0x68, 0x3e, 0xb2, 0x70, 0x47, 0xbf, 0x26, 0x6e, 0x67, 0x3e,
  0x08, 0x84, 0x3c, 0x3e, 0xd1, 0x7e, 0x3c, 0xbe, 0x73, 0x92, 0x06, 0x3f, 0x64, 0x32, 0x3c, 0xbe,
  0x3f, 0xf8, 0xdc, 0xbe, 0x39, 0x14, 0x83, 0x3e, 0x86, 0x41, 0x3e, 0x3f, 0xa6, 0xee, 0xf0, 0xbc,
  0xa8, 0x03, 0x2c, 0xbf, 0x17, 0xe2, 0x09, 0xbf, 0x74, 0xd7, 0x66, 0xbf, 0x5b, 0x51, 0x33, 0x3f,
  0x9a, 0x21, 0x07, 0xbf, 0x35, 0xb9, 0x10, 0x3f, 0x16, 0xb5, 0xbf, 0xbf, 0xad, 0x28, 0x5d, 0xbf,
  0xd4, 0xd3, 0xbd, 0xbf, 0xf7, 0x78, 0x63, 0x3f, 0x8f, 0x1d, 0x2d, 0xbe, 0x2f, 0x34, 0x4b, 0xbf,
  0xa0, 0xdc, 0x93, 0x3e, 0x90, 0x8e, 0x28, 0xbf, 0xd8, 0x0e, 0x29, 0xbe, 0x6e, 0xbc, 0x4a, 0xbf,
  0xd9, 0x57, 0x63, 0xbf, 0x28, 0xe8, 0x2b, 0xbf, 0x05, 0xc7, 0x8c, 0xbf, 0x54, 0x4e, 0x8c, 0x3f,
  0x02, 0x94, 0x98, 0xbf, 0x75, 0x56, 0x04, 0x3b, 0xbd, 0xd0, 0x8a, 0xbe, 0x01, 0x78, 0x49, 0x3d,
  0x6a, 0xa8, 0x68, 0xbf, 0x90, 0x65, 0x7c, 0xbe, 0x15, 0x6e, 0x64, 0xbf, 0x13, 0xba, 0x96, 0x3d,
  0x4e, 0x18, 0xfa, 0x3e, 0xef, 0xd1, 0xf4, 0x3c, 0xbb, 0x5c, 0x97, 0xbf, 0x82, 0x44, 0xb1, 0xbf,
  0xa7, 0x5b, 0xa1, 0x3f, 0xc3, 0x28, 0x5d, 0x3f, 0x2f, 0x25, 0x8b, 0x3f, 0xb6, 0xfb, 0xb5, 0x3f,
  0x5a, 0x86, 0xb5, 0x3f, 0xe3, 0x94, 0x11, 0x3f, 0xff, 0x8d, 0x81, 0x3f, 0x44, 0xd8, 0x56, 0x3f,
  0x1b, 0x84, 0xc3, 0x3f, 0x83, 0x71, 0x78, 0x3f, 0xc4, 0xdc, 0x98, 0x3f, 0x91, 0xb1, 0xdd, 0x3f,
  0xb0, 0x54, 0xdb, 0x3f, 0xba, 0xfd, 0x3d, 0x3f, 0x41, 0x12, 0xb4, 0x3d, 0xb3, 0x04, 0x77, 0x3f,
  0x26, 0x5a, 0x5a, 0x3f, 0xb1, 0x85, 0xa2, 0x3f, 0x04, 0x19, 0xc8, 0x3f, 0x6f, 0xfd, 0x1c, 0x3f,
  0x34, 0xe7, 0xbf, 0x3f, 0x34, 0x81, 0xa8, 0x3c, 0x87, 0xba, 0xf6, 0x3f, 0xf6, 0xea, 0x4f, 0x3c,
  0x0c, 0x91, 0xd2, 0x3f, 0x83, 0x73, 0x05, 0x40, 0x65, 0x0c, 0xb7, 0x3f, 0x6a, 0x6a, 0x12, 0x40,
  0x67, 0xaf, 0xd6, 0x3f, 0xad, 0xcb, 0xfc, 0x3d, 0x36, 0xb9, 0xd7, 0x3f, 0x1b, 0xd0, 0x13, 0x3f,
  0x0c, 0x65, 0x01, 0x3e, 0x54, 0x24, 0x83, 0x3f, 0x78, 0x36, 0x9c, 0x3f, 0x07, 0x3f, 0x33, 0xbf,
  0x92, 0x09, 0x94, 0xbe, 0xf5, 0x7b, 0x8a, 0x3f, 0x2c, 0x50, 0xc9, 0xbe, 0xc4, 0x72, 0xac, 0x3d,
  0x4b, 0x87, 0xb5, 0xbe, 0xa3, 0xfa, 0xed, 0x3f, 0x98, 0x4d, 0xa8, 0xbd, 0x1d, 0x33, 0xd2, 0xbe,
  0xb4, 0x5c, 0x85, 0xbe, 0xba, 0x1c, 0x17, 0xbe, 0xc0, 0x73, 0x43, 0x3e, 0x1d, 0x82, 0x49, 0x3f,
  0x97, 0x27, 0x45, 0x3f, 0xd9, 0x92, 0xc0, 0x3d, 0xfd, 0xae, 0xcd, 0xbe, 0x99, 0x6d, 0xcb, 0x3f,
  0x13, 0x2c, 0x3d, 0x3f, 0x54, 0xaf, 0x7a, 0xbd, 0xcf, 0x79, 0x20, 0xbf, 0xef, 0xaa, 0xbd, 0xbc,
  0x90, 0x74, 0xe8, 0xbe, 0x0a, 0x5a, 0x9e, 0x3d, 0x12, 0x74, 0x4f, 0xbe, 0x2e, 0x5c, 0x71, 0xbe,
  0x7e, 0x68, 0x5a, 0xbe, 0x34, 0x17, 0xc3, 0x3c, 0x4a, 0x62, 0x51, 0xbe, 0x9c, 0x89, 0x3f, 0x3f,
  0x1f, 0xc0, 0x9e, 0x3e, 0x02, 0x03, 0x8b, 0xbe, 0xa8, 0x79, 0x38, 0xbb, 0x88, 0x43, 0x58, 0x3e,
  0x58, 0xe0, 0x64, 0x3f, 0x4b, 0x9c, 0x58, 0xbf, 0x91, 0xe2, 0x44, 0x3e, 0x76, 0x2c, 0x28, 0x3e,
  0xb3, 0x3e, 0x9a, 0x3e, 0xeb, 0xc3, 0x74, 0xbe, 0x8a, 0xf6, 0xaf, 0xbd, 0xe7, 0x42, 0x6a, 0x3f,
  0x37, 0x87, 0x9b, 0x3f, 0xcb, 0x24, 0xc7, 0x3e, 0xf6, 0xd5, 0xeb, 0xbc, 0x04, 0x1a, 0xe2, 0xbe,
  0x70, 0x19, 0xa5, 0xbe, 0xbe, 0xb4, 0x30, 0x3e, 0xc8, 0x1e, 0xa2, 0x3e, 0x6d, 0x5d, 0x28, 0xbf,
  0xa1, 0x5b, 0xdc, 0x3e, 0x1c, 0x56, 0x78, 0xbd, 0x64, 0xe9, 0x88, 0x3f, 0xc5, 0xd6, 0xdb, 0xbd,
  0xb8, 0x2d, 0x57, 0x3f, 0x1e, 0x3b, 0x91, 0x3f, 0x47, 0xc5, 0x26, 0x3f, 0x54, 0xf2, 0x18, 0x40,
  0xa0, 0x42, 0xe6, 0x3f, 0x74, 0xd9, 0xaf, 0x3d, 0xfc, 0x2c, 0x8e, 0x3d, 0x42, 0x22, 0x40, 0x3e,
  0x16, 0x4b, 0x58, 0xbf, 0xfc, 0x22, 0x17, 0x3f, 0xab, 0x25, 0xaa, 0x3e, 0xcd, 0x88, 0xf6, 0xbe,
  0x9c, 0xc8, 0xd8, 0xbd, 0xaa, 0x40, 0x2b, 0x3d, 0x23, 0xf4, 0x4d, 0xbe, 0xb3, 0x87, 0xad, 0x3e,
  0x0e, 0x57, 0xfc, 0xbe, 0x04, 0xff, 0xb1, 0x3f, 0x50, 0x82, 0x13, 0x3e, 0x91, 0x5d, 0x34, 0xbf,
  0x25, 0xb9, 0x8e, 0xbe, 0x24, 0x0f, 0xcb, 0x3e, 0x0b, 0x97, 0x97, 0xbf, 0x9e, 0xa7, 0x32, 0x3f,
  0xe3, 0x2f, 0xb9, 0x3c, 0x54, 0xab, 0x1c, 0x3e, 0xce, 0x50, 0x3c, 0xbf, 0x33, 0xfd, 0x54, 0x3f,
  0x6d, 0x20, 0x4f, 0x3e, 0x8a, 0x74, 0xb6, 0xba, 0xe3, 0x24, 0x5a, 0xbe, 0x69, 0x88, 0xf5, 0x3c,
  0x33, 0x50, 0x08, 0xbf, 0x10, 0xcd, 0x88, 0x3e, 0xd5, 0x3f, 0xb3, 0xbe, 0x33, 0x57, 0x2d, 0x3e,
  0x3e, 0x49, 0x9b, 0xbe, 0x5d, 0xd1, 0x6d, 0xbe, 0xcd, 0xb1, 0xb8, 0xbe, 0x36, 0x6c, 0x45, 0xbf,
  0x63, 0x10, 0x64, 0x3e, 0xba, 0xc1, 0xb2, 0xbd, 0xbe, 0x00, 0xf8, 0xbd, 0x26, 0xbd, 0x16, 0x3f,
  0xe2, 0xb4, 0xb8, 0x3d, 0xa3, 0xd4, 0xc8, 0x3e, 0x09, 0x14, 0x03, 0xbe, 0x41, 0xfb, 0xc6, 0x3e,
  0x1b, 0xb1, 0x29, 0x3f, 0xe3, 0xfb, 0x03, 0xbe, 0x1a, 0x33, 0xcd, 0x3e, 0x89, 0x4a, 0x4c, 0x3f,
  0x0a, 0x42, 0x46, 0x3f, 0xe2, 0xb5, 0x4b, 0x3e, 0x4c, 0x00, 0xa3, 0x3d, 0x61, 0x0a, 0xde, 0x3d,
  0x2f, 0x1e, 0xf4, 0xbc, 0x93, 0xb4, 0x7b, 0xbe, 0x84, 0x9a, 0x00, 0xbd, 0xa0, 0x65, 0x12, 0x3f,
  0x55, 0x1d, 0x85, 0x3d, 0x65, 0x12, 0x99, 0x3d, 0x25, 0x32, 0x2a, 0x3f, 0xde, 0xb5, 0x68, 0x3c,
  0x3c, 0x0d, 0x9e, 0x3f, 0x25, 0xc2, 0x46, 0x3f, 0xdc, 0xc8, 0x0f, 0x3f, 0xa5, 0xd7, 0xe0, 0x3f,
  0x6d, 0x16, 0x83, 0x3f, 0xc6, 0xbc, 0xe6, 0x3d, 0x2f, 0x30, 0x3b, 0xbd, 0x0f, 0x38, 0x0b, 0x3e,
  0xe3, 0xcf, 0x2f, 0x3e, 0x61, 0x7b, 0xc0, 0x3f, 0x2f, 0x56, 0x9c, 0x3f, 0xa2, 0x51, 0x4c, 0xbe,
  0xab, 0xcc, 0x37, 0x3e, 0x20, 0x7e, 0xc3, 0x3f, 0x02, 0xe7, 0x92, 0x3e, 0x45, 0x48, 0xd8, 0x3e,
  0xae, 0xf6, 0x92, 0x3e, 0x4e, 0x3b, 0x04, 0x40, 0xc5, 0x3c, 0x28, 0x3f, 0x25, 0xf0, 0xb6, 0xbe,
  0x8b, 0xdd, 0x9c, 0xbe, 0x92, 0xcc, 0x3a, 0x3f, 0xce, 0xa4, 0xb3, 0x3e, 0x7c, 0x67, 0x73, 0x3f,
  0xae, 0x5c, 0x74, 0x3f, 0xaf, 0x9c, 0x2d, 0xbd, 0xff, 0x7c, 0x0e, 0x3f, 0x74, 0x20, 0xf3, 0x3f,
  0x8d, 0x1a, 0x6c, 0x3f, 0x88, 0x3b, 0xb1, 0x3e, 0x05, 0x1c, 0xef, 0xbe, 0x5e, 0xa1, 0x9f, 0x3e,
  0x08, 0xc3, 0xbb, 0x3d, 0x2e, 0xf4, 0xaa, 0x3e, 0x2f, 0xb6, 0xab, 0xbe, 0x08, 0xcd, 0xd1, 0x3e,
  0xbc, 0x11, 0x06, 0x3e, 0x38, 0x20, 0x7f, 0x3d, 0x09, 0x4c, 0x80, 0x3e, 0x98, 0x8c, 0xd8, 0x3e,
  0xe8, 0x1e, 0x96, 0xbe, 0x78, 0xdf, 0xd9, 0xbe, 0xdd, 0x41, 0x98, 0xbe, 0x25, 0x54, 0x8d, 0xbc,
  0x6a, 0x54, 0xd5, 0x3e, 0x89, 0x31, 0x8f, 0xbf, 0x6a, 0xe5, 0x2f, 0x3f, 0x89, 0xdf, 0x61, 0xbd,
  0x76, 0x3b, 0x1c, 0xbf, 0xdd, 0x32, 0x84, 0xbf, 0xaa, 0xbf, 0xe4, 0xbd, 0x4e, 0x00, 0xa6, 0x3d,
  0x03, 0xc2, 0x14, 0x3f, 0x10, 0x61, 0x28, 0xbe, 0xf2, 0x25, 0xca, 0x3c, 0xaa, 0x25, 0xed, 0xbe,
  0x50, 0x02, 0x5a, 0xbf, 0xd5, 0x51, 0x8d, 0x3e, 0xba, 0xdc, 0x4e, 0x3f, 0x9a, 0x75, 0x93, 0xbf,
  0xcf, 0xd4, 0xad, 0xbe, 0x9c, 0x39, 0x28, 0xbe, 0x8d, 0x18, 0xb5, 0x3e, 0xa4, 0x69, 0xe1, 0xbd,
  0xeb, 0x53, 0xfc, 0x3e, 0xf8, 0x70, 0x16, 0x3d, 0x36, 0x73, 0x6f, 0x3f, 0xbe, 0xcf, 0x1a, 0xbe,
  0xc1, 0x54, 0xe2, 0x3d, 0x9a, 0x66, 0xd9, 0x3e, 0x17, 0xba, 0x50, 0xbe, 0x20, 0x71, 0x0f, 0xbe,
  0xb5, 0xea, 0xe2, 0x3e, 0x62, 0xaf, 0x87, 0x3f, 0x2e, 0x11, 0x38, 0xbf, 0xe5, 0x83, 0x83, 0xbe,
  0xb4, 0x05, 0xe7, 0xbd, 0x3d, 0x6f, 0x73, 0x3f, 0xbd, 0x9a, 0x5d, 0x3d, 0x17, 0x5d, 0xb9, 0xbe,
  0x7e, 0x7f, 0xc3, 0x3b, 0x61, 0x30, 0xf7, 0x3e, 0xbb, 0x5e, 0xa9, 0xbf, 0xac, 0x8e, 0x8e, 0xbe,
  0xc9, 0x39, 0x6a, 0xbe, 0x43, 0xbb, 0x57, 0xbf, 0xdf, 0x3e, 0xaa, 0x3e, 0x2d, 0xcd, 0xbf, 0x3e,
  0x8f, 0xa0, 0xd9, 0x3e, 0x13, 0x08, 0x9c, 0xbe, 0xfa, 0xa5, 0x8d, 0x3d, 0x4f, 0x2e, 0x27, 0x3f,
  0xe2, 0x7b, 0x6e, 0xbd, 0x66, 0x94, 0x32, 0xbe, 0x36, 0x83, 0x32, 0xbf, 0x6a, 0xb4, 0xff, 0xbd,
  0x17, 0x82, 0x91, 0x3e, 0x14, 0xc3, 0x83, 0xbf, 0x6f, 0xd5, 0xb9, 0xbe, 0x8a, 0x79, 0xe9, 0xbe,
  0x8d, 0x0d, 0x6a, 0xbe, 0x6d, 0x88, 0x87, 0x3e, 0x7f, 0x81, 0xb3, 0xbd, 0xf3, 0x14, 0x1c, 0x3f,
  0xf5, 0x08, 0xa7, 0x3d, 0xf1, 0xd1, 0x07, 0x3f, 0xa5, 0xe4, 0x2c, 0x3f, 0x5b, 0x44, 0xdf, 0xbe,
  0x7d, 0xa4, 0x05, 0xbd, 0x23, 0xcb, 0x89, 0x3f, 0x5f, 0x99, 0x0c, 0x3d, 0xee, 0x75, 0x82, 0xbe,
  0x2a, 0x58, 0xcb, 0x3d, 0x1e, 0xeb, 0x4e, 0x3f, 0xff, 0x00, 0x4b, 0xbf, 0xe4, 0x23, 0x89, 0x3e,
  0x8c, 0xf6, 0xbc, 0xbe, 0x14, 0x44, 0x16, 0xbf, 0xf8, 0x4f, 0xe4, 0x3e, 0x33, 0x66, 0xd8, 0x3e,
  0x40, 0x59, 0xe7, 0xbc, 0xb6, 0x7f, 0x15, 0xbf, 0x16, 0xf8, 0x61, 0xbe, 0xed, 0xa0, 0x75, 0x3f,
  0x15, 0x4b, 0xc7, 0x3e, 0x54, 0xa0, 0x80, 0xbf, 0x65, 0xc3, 0x27, 0xbf, 0x85, 0xf5, 0x46, 0xbf,
  0xa1, 0xe2, 0x32, 0x3e, 0xa7, 0xb6, 0x14, 0xbf, 0x73, 0x66, 0xe2, 0xba, 0x90, 0x1e, 0x80, 0x3e,
  0x94, 0x7e, 0x3c, 0xbf, 0x25, 0x06, 0xfd, 0x3e, 0xb2, 0xae, 0x05, 0xbe, 0xe0, 0x47, 0x39, 0x3e,
  0xd6, 0xdd, 0x82, 0xbe, 0x8e, 0x61, 0x87, 0xbe, 0x24, 0xea, 0x74, 0xbe, 0x86, 0x7c, 0x88, 0xbe,
  0x43, 0xb0, 0x87, 0xbe, 0xc5, 0x3f, 0xd9, 0xbe, 0x1d, 0x69, 0xc7, 0xbd, 0xe3, 0xf8, 0x22, 0xbe,
  0xfc, 0x65, 0xb9, 0xbd, 0xff, 0xcb, 0x17, 0xbf, 0xc8, 0x6b, 0x76, 0xbe, 0xf3, 0x9e, 0x81, 0xbe,
  0x30, 0xaa, 0x38, 0x3e, 0x3a, 0x0c, 0xb1, 0x3e, 0xdf, 0xb9, 0x0b, 0xbe, 0x91, 0xe9, 0x87, 0xbe,
  0x6f, 0x35, 0x40, 0xbe, 0x31, 0xbb, 0x1b, 0xbe, 0xa6, 0x67, 0xcb, 0xbd, 0x30, 0x75, 0x80, 0xbf,
  0xf7, 0xa4, 0xc1, 0xbe, 0x3e, 0x02, 0xc0, 0x3e, 0x9b, 0xc3, 0xf0, 0xbe, 0xbe, 0x9f, 0xdb, 0x3e,
  0xe5, 0x42, 0xfa, 0xbe, 0x66, 0x59, 0xb7, 0xbe, 0xbe, 0xf5, 0xb7, 0xbd, 0xff, 0x18, 0x8a, 0xbe,
  0xe8, 0x9b, 0xff, 0xbe, 0x70, 0xf5, 0x94, 0x3e, 0x3d, 0x3d, 0xb6, 0xbd, 0x4d, 0x36, 0x61, 0xbe,
  0x68, 0xc5, 0x0e, 0x3d, 0x9c, 0x18, 0x8b, 0xbf, 0xf8, 0x10, 0x24, 0xbf, 0xb6, 0xde, 0x97, 0x3e,
  0xe3, 0xb8, 0x9e, 0x3e, 0xe5, 0x56, 0x9a, 0xbf, 0x06, 0xb7, 0x05, 0x3f, 0x4e, 0xac, 0x2a, 0x3e,
  0xdd, 0x20, 0x60, 0x3e, 0xc6, 0xcf, 0xe0, 0xbf, 0x24, 0xff, 0x29, 0x3d, 0x98, 0xcd, 0x61, 0x3f,
  0x83, 0xed, 0x55, 0x3f, 0x0b, 0xdc, 0x8d, 0xbc, 0xa6, 0xfd, 0xf5, 0xbd, 0x28, 0x71, 0xcc, 0xbe,
  0x59, 0x47, 0x3b, 0xbf, 0x23, 0xbf, 0x14, 0x3f, 0x0b, 0x97, 0xe7, 0x3d, 0xef, 0xec, 0xac, 0xbf,
  0xa8, 0x2c, 0xa8, 0xbe, 0x53, 0x8d, 0x37, 0xbc, 0x83, 0x7e, 0x4c, 0x3f, 0x53, 0x98, 0x34, 0xbd,
  0x02, 0x7f, 0x1e, 0x3f, 0x29, 0xad, 0x2d, 0x3e, 0x18, 0x52, 0x9f, 0x3e, 0x05, 0xf6, 0xcd, 0xbd,
  0x07, 0xba, 0xa2, 0x3e, 0xba, 0x82, 0x18, 0x3f, 0x50, 0xc4, 0x73, 0x3e, 0xa8, 0xd7, 0xe2, 0x3c,
  0xa8, 0x2b, 0x1f, 0xbd, 0x10, 0xd3, 0xcd, 0x3e, 0x81, 0x96, 0x0d, 0x3e, 0x59, 0xad, 0x05, 0x3e,
  0x83, 0x5e, 0x84, 0x3d, 0xa6, 0x1f, 0x3e, 0x3f, 0xfb, 0x87, 0x68, 0xbe, 0x60, 0x07, 0xd7, 0x3d,
  0xd5, 0x7a, 0xb7, 0x3e, 0xab, 0xd9, 0x4a, 0x3f, 0x06, 0xea, 0x8b, 0x3e, 0x63, 0x20, 0xb5, 0x3e,
  0xdc, 0x82, 0xb6, 0xbd, 0x2f, 0x79, 0x35, 0xbe, 0x53, 0x9c, 0x5f, 0x3d, 0xb4, 0x2c, 0x1f, 0x3f,
  0x0f, 0xfd, 0x20, 0x3f, 0xe8, 0x51, 0x09, 0x3d, 0xf3, 0xbe, 0x80, 0x3c, 0xbc, 0xbd, 0x8e, 0x3f,
  0x76, 0xb1, 0xfc, 0x3e, 0x85, 0x1f, 0x4a, 0xbe, 0xe7, 0x43, 0xac, 0xbd, 0xb0, 0x23, 0x56, 0xbe,
  0x51, 0xaa, 0xb5, 0x3e, 0xfd, 0x77, 0x49, 0x3e, 0xd7, 0x10, 0x9c, 0xbd, 0x82, 0x0e, 0x78, 0x3e,
  0x1c, 0x13, 0x2d, 0x3f, 0xd0, 0x58, 0xc3, 0xbd, 0xf7, 0xa0, 0x00, 0x3e, 0xae, 0x9a, 0x66, 0xbd,
  0x7f, 0x52, 0xaf, 0xbe, 0x5e, 0x71, 0x9e, 0x3a, 0x3a, 0xaf, 0x81, 0x3d, 0x76, 0x98, 0x49, 0xbf,
  0x0a, 0x9b, 0xb9, 0xbe, 0x9f, 0x50, 0x25, 0x3e, 0xff, 0x23, 0xb8, 0xbe, 0x2b, 0xb6, 0x92, 0xbd,
  0x60, 0x04, 0xc7, 0xbe, 0x9f, 0xc8, 0xde, 0xbd, 0xa9, 0x99, 0xa7, 0xbe, 0x38, 0x6b, 0xbf, 0xbf,
  0x9a, 0x20, 0x91, 0xbf, 0x91, 0x1a, 0xe7, 0xbd, 0x3d, 0x9d, 0x20, 0x3c, 0xa6, 0x66, 0x23, 0x3d,
  0x8d, 0x22, 0x9c, 0xbc, 0xf6, 0x2a, 0x9e, 0xbe, 0x55, 0x1f, 0xe5, 0xbe, 0x8a, 0x36, 0xc0, 0x3d,
  0x67, 0x46, 0xe7, 0xbd, 0x74, 0xff, 0xf2, 0x3d, 0x6d, 0x82, 0x93, 0xbf, 0xc1, 0x6f, 0x1e, 0x3e,
  0xd1, 0x88, 0x48, 0xbf, 0x95, 0x97, 0x88, 0xbf, 0x47, 0x34, 0x36, 0xbf, 0x23, 0x6a, 0xb4, 0xbf,
  0xf6, 0x9f, 0x91, 0xbf, 0xeb, 0xd3, 0x9f, 0x3d, 0xff, 0x3a, 0xa9, 0xbe, 0x57, 0xc9, 0x1f, 0xbd,
  0x3b, 0x59, 0xbb, 0x3f, 0x3a, 0x9d, 0x62, 0x3f, 0xb6, 0xa6, 0x95, 0x3f, 0x51, 0xdc, 0x8a, 0x3f,
  0x5f, 0x16, 0xc2, 0x3f, 0x82, 0x47, 0x2a, 0x3f, 0x58, 0x07, 0xa7, 0x3f, 0x5a, 0x30, 0x7e, 0x3f,
  0x04, 0xa9, 0xb5, 0x3f, 0x59, 0xf9, 0x55, 0x3f, 0x30, 0x97, 0x90, 0x3f, 0xa8, 0x87, 0xb8, 0x3f,
  0xf9, 0x2c, 0xb1, 0x3f, 0x57, 0x92, 0x14, 0x3f, 0xe6, 0x9f, 0x10, 0x3d, 0x10, 0xa2, 0xa3, 0x3f,
  0x70, 0xbc, 0x34, 0x3f, 0x1e, 0x97, 0xaf, 0x3f, 0x89, 0x0b, 0xd9, 0x3f, 0xc2, 0x41, 0x91, 0x3f,
  0x60, 0x4e, 0xc1, 0x3f, 0x35, 0xe6, 0xe5, 0xbb, 0x02, 0x93, 0xc4, 0x3f, 0xa6, 0xe9, 0x84, 0x3c,
  0x49, 0x01, 0xf9, 0x3f, 0x9d, 0x32, 0xb7, 0x3f, 0xad, 0xc6, 0xa6, 0x3f, 0xeb, 0x40, 0xcc, 0x3f,
  0x81, 0xe9, 0x8e, 0x3f, 0x20, 0xf6, 0xde, 0x3d, 0x9a, 0x0c, 0xae, 0x3f, 0x0f, 0x5b, 0x84, 0x3f,
  0xf6, 0xfd, 0xff, 0xff, 0x04, 0x00, 0x00, 0x00, 0x00, 0x01, 0x00, 0x00, 0xd1, 0xad, 0x67, 0xc0,
  0xed, 0xdb, 0x47, 0x40, 0xb9, 0xe7, 0x8f, 0xc0, 0x82, 0x28, 0x82, 0xc0, 0x34, 0xe1, 0x37, 0xc0,
  0x35, 0x42, 0xd9, 0xbf, 0x89, 0x2e, 0x01, 0xc0, 0x26, 0x51, 0x9a, 0xc0, 0xa2, 0xd6, 0x4f, 0xc0,
  0x73, 0x3f, 0x0e, 0xc0, 0x3a, 0x43, 0xd1, 0xbf, 0x2b, 0x7e, 0x72, 0x3f, 0x2b, 0x9d, 0x69, 0xc0,
  0xf9, 0xb5, 0xb9, 0xbd, 0xd7, 0x36, 0xca, 0x3f, 0x4c, 0xd3, 0x8f, 0xc0, 0x3d, 0x61, 0x7e, 0x3f,
  0x7d, 0x97, 0x87, 0xbf, 0x13, 0x53, 0x92, 0x3e, 0xc3, 0x5d, 0x11, 0xbf, 0x57, 0xfb, 0xf2, 0x3e,
  0xbd, 0xf0, 0xf2, 0xbf, 0xe5, 0x5c, 0x24, 0x3f, 0xfe, 0x24, 0x71, 0xbd, 0x9a, 0xea, 0xb6, 0x3f,
  0xa4, 0x61, 0xcf, 0xbf, 0x96, 0xa4, 0x00, 0xc0, 0xe9, 0x4c, 0x98, 0x3e, 0xa0, 0xac, 0x45, 0x3f,
  0x22, 0x01, 0xca, 0xbe, 0xf2, 0x47, 0x12, 0xbf, 0xf8, 0xd2, 0x6d, 0x3e, 0xe1, 0x03, 0xab, 0x3d,
  0xe5, 0x13, 0x2b, 0xc0, 0x50, 0x53, 0x2c, 0x3e, 0x6a, 0xc9, 0x3f, 0x3f, 0xd3, 0x5a, 0x00, 0xc0,
  0x1b, 0xc4, 0x01, 0x3f, 0x6e, 0xdd, 0x42, 0xc0, 0x5f, 0xb6, 0x82, 0x3d, 0xf4, 0xb6, 0xac, 0xbf,
  0x9e, 0xcc, 0xb7, 0x3e, 0x03, 0xde, 0x08, 0x3f, 0x64, 0xeb, 0xdf, 0x3e, 0x39, 0xc9, 0xf9, 0xbe,
  0x2b, 0xf8, 0x0a, 0xc0, 0xcd, 0x3e, 0x29, 0x3f, 0x01, 0xf8, 0x49, 0x3e, 0xe8, 0x62, 0x09, 0xbf,
  0x00, 0x35, 0x96, 0x3e, 0x8c, 0xf3, 0x91, 0x3e, 0x9f, 0x5c, 0x77, 0x3f, 0xf0, 0x38, 0xeb, 0x3e,
  0xe4, 0xdb, 0xfc, 0x3e, 0x30, 0x58, 0x58, 0x3f, 0x2c, 0xb1, 0x6a, 0x3e, 0x0d, 0xdb, 0x81, 0x3d,
  0xdc, 0x24, 0x03, 0x3f, 0xec, 0x9c, 0xa9, 0x3f, 0x5e, 0xff, 0xfc, 0xbf, 0xad, 0x91, 0x97, 0x3e,
  0x4a, 0x0a, 0xff, 0x3f, 0xdb, 0x25, 0x24, 0xc0, 0x19, 0xc0, 0x8d, 0x3e, 0x02, 0xff, 0xff, 0xff,
  0x04, 0x00, 0x00, 0x00, 0x10, 0x00, 0x00, 0x00, 0x86, 0xa9, 0x43, 0x40, 0xc6, 0x82, 0x00, 0xbe,
  0xe2, 0x14, 0x8f, 0x3f, 0x10, 0xf3, 0x6b, 0xc0, 0x1e, 0xff, 0xff, 0xff, 0x04, 0x00, 0x00, 0x00,
  0x40, 0x00, 0x00, 0x00, 0xb2, 0xf4, 0x21, 0xbe, 0x83, 0x7b, 0xcd, 0x3e, 0x59, 0x09, 0xb3, 0xbc,
  0x45, 0x31, 0x93, 0x3b, 0x52, 0xcc, 0x1b, 0xbf, 0x6b, 0x8e, 0xa1, 0x3d, 0x40, 0x40, 0x4a, 0xbf,
  0x14, 0xf7, 0x80, 0xbe, 0xbd, 0x65, 0x4f, 0xbd, 0x66, 0x45, 0x11, 0x3c, 0xdd, 0x2c, 0x22, 0xbd,
  0xe0, 0x34, 0xd7, 0x3f, 0x2f, 0x19, 0x2e, 0xbd, 0xc5, 0x6f, 0x99, 0xbf, 0x85, 0x94, 0x94, 0x3f,
  0x53, 0x98, 0xb8, 0xbc, 0x6c, 0xfa, 0xff, 0xff, 0x70, 0xfa, 0xff, 0xff, 0x0f, 0x00, 0x00, 0x00,
  0x4d, 0x4c, 0x49, 0x52, 0x20, 0x43, 0x6f, 0x6e, 0x76, 0x65, 0x72, 0x74, 0x65, 0x64, 0x2e, 0x00,
  0x01, 0x00, 0x00, 0x00, 0x14, 0x00, 0x00, 0x00, 0x00, 0x00, 0x0e, 0x00, 0x18, 0x00, 0x14, 0x00,
  0x10, 0x00, 0x0c, 0x00, 0x08, 0x00, 0x04, 0x00, 0x0e, 0x00, 0x00, 0x00, 0x14, 0x00, 0x00, 0x00,
  0x1c, 0x00, 0x00, 0x00, 0x24, 0x01, 0x00, 0x00, 0x28, 0x01, 0x00, 0x00, 0x2c, 0x01, 0x00, 0x00,
  0x04, 0x00, 0x00, 0x00, 0x6d, 0x61, 0x69, 0x6e, 0x00, 0x00, 0x00, 0x00, 0x04, 0x00, 0x00, 0x00,
  0xcc, 0x00, 0x00, 0x00, 0x84, 0x00, 0x00, 0x00, 0x50, 0x00, 0x00, 0x00, 0x14, 0x00, 0x00, 0x00,
  0x00, 0x00, 0x0e, 0x00, 0x1a, 0x00, 0x14, 0x00, 0x10, 0x00, 0x0c, 0x00, 0x0b, 0x00, 0x04, 0x00,
  0x0e, 0x00, 0x00, 0x00, 0x1c, 0x00, 0x00, 0x00, 0x00, 0x00, 0x00, 0x09, 0x1c, 0x00, 0x00, 0x00,
  0x20, 0x00, 0x00, 0x00, 0x01, 0x00, 0x00, 0x00, 0x00, 0x00, 0x06, 0x00, 0x08, 0x00, 0x04, 0x00,
  0x06, 0x00, 0x00, 0x00, 0x00, 0x00, 0x80, 0x3f, 0x01, 0x00, 0x00, 0x00, 0x0a, 0x00, 0x00, 0x00,
  0x01, 0x00, 0x00, 0x00, 0x09, 0x00, 0x00, 0x00, 0x9a, 0xff, 0xff, 0xff, 0x10, 0x00, 0x00, 0x00,
  0x00, 0x00, 0x00, 0x08, 0x0c, 0x00, 0x00, 0x00, 0x10, 0x00, 0x00, 0x00, 0x34, 0xfb, 0xff, 0xff,
  0x01, 0x00, 0x00, 0x00, 0x09, 0x00, 0x00, 0x00, 0x03, 0x00, 0x00, 0x00, 0x08, 0x00, 0x00, 0x00,
  0x03, 0x00, 0x00, 0x00, 0x02, 0x00, 0x00, 0x00, 0xca, 0xff, 0xff, 0xff, 0x10, 0x00, 0x00, 0x00,
  0x00, 0x00, 0x00, 0x08, 0x10, 0x00, 0x00, 0x00, 0x14, 0x00, 0x00, 0x00, 0xba, 0xff, 0xff, 0xff,
  0x00, 0x00, 0x00, 0x01, 0x01, 0x00, 0x00, 0x00, 0x08, 0x00, 0x00, 0x00, 0x03, 0x00, 0x00, 0x00,
  0x07, 0x00, 0x00, 0x00, 0x04, 0x00, 0x00, 0x00, 0x01, 0x00, 0x00, 0x00, 0x00, 0x00, 0x0e, 0x00,
  0x16, 0x00, 0x00, 0x00, 0x10, 0x00, 0x0c, 0x00, 0x0b, 0x00, 0x04, 0x00, 0x0e, 0x00, 0x00, 0x00,
  0x18, 0x00, 0x00, 0x00, 0x00, 0x00, 0x00, 0x08, 0x18, 0x00, 0x00, 0x00, 0x1c, 0x00, 0x00, 0x00,
  0x00, 0x00, 0x06, 0x00, 0x08, 0x00, 0x07, 0x00, 0x06, 0x00, 0x00, 0x00, 0x00, 0x00, 0x00, 0x01,
  0x01, 0x00, 0x00, 0x00, 0x07, 0x00, 0x00, 0x00, 0x03, 0x00, 0x00, 0x00, 0x00, 0x00, 0x00, 0x00,
  0x05, 0x00, 0x00, 0x00, 0x06, 0x00, 0x00, 0x00, 0x01, 0x00, 0x00, 0x00, 0x0a, 0x00, 0x00, 0x00,
  0x01, 0x00, 0x00, 0x00, 0x00, 0x00, 0x00, 0x00, 0x0b, 0x00, 0x00, 0x00, 0xf4, 0x03, 0x00, 0x00,
  0xa0, 0x03, 0x00, 0x00, 0x4c, 0x03, 0x00, 0x00, 0x0c, 0x03, 0x00, 0x00, 0xcc, 0x02, 0x00, 0x00,
  0x7c, 0x02, 0x00, 0x00, 0x14, 0x02, 0x00, 0x00, 0x78, 0x01, 0x00, 0x00, 0xdc, 0x00, 0x00, 0x00,
  0x60, 0x00, 0x00, 0x00, 0x04, 0x00, 0x00, 0x00, 0x4e, 0xfc, 0xff, 0xff, 0x00, 0x00, 0x00, 0x01,
  0x14, 0x00, 0x00, 0x00, 0x1c, 0x00, 0x00, 0x00, 0x1c, 0x00, 0x00, 0x00, 0x0b, 0x00, 0x00, 0x00,
  0x34, 0x00, 0x00, 0x00, 0x02, 0x00, 0x00, 0x00, 0xff, 0xff, 0xff, 0xff, 0x04, 0x00, 0x00, 0x00,
  0x38, 0xfc, 0xff, 0xff, 0x1b, 0x00, 0x00, 0x00, 0x53, 0x74, 0x61, 0x74, 0x65, 0x66, 0x75, 0x6c,
  0x50, 0x61, 0x72, 0x74, 0x69, 0x74, 0x69, 0x6f, 0x6e, 0x65, 0x64, 0x43, 0x61, 0x6c, 0x6c, 0x5f,
  0x31, 0x3a, 0x30, 0x00, 0x02, 0x00, 0x00, 0x00, 0x01, 0x00, 0x00, 0x00, 0x04, 0x00, 0x00, 0x00,
  0xa6, 0xfc, 0xff, 0xff, 0x00, 0x00, 0x00, 0x01, 0x14, 0x00, 0x00, 0x00, 0x1c, 0x00, 0x00, 0x00,
  0x1c, 0x00, 0x00, 0x00, 0x0a, 0x00, 0x00, 0x00, 0x54, 0x00, 0x00, 0x00, 0x02, 0x00, 0x00, 0x00,
  0xff, 0xff, 0xff, 0xff, 0x04, 0x00, 0x00, 0x00, 0x90, 0xfc, 0xff, 0xff, 0x3a, 0x00, 0x00, 0x00,
  0x73, 0x65, 0x71, 0x75, 0x65, 0x6e, 0x74, 0x69, 0x61, 0x6c, 0x5f, 0x31, 0x2f, 0x6f, 0x75, 0x74,
  0x70, 0x75, 0x74, 0x5f, 0x31, 0x2f, 0x4d, 0x61, 0x74, 0x4d, 0x75, 0x6c, 0x3b, 0x73, 0x65, 0x71,
  0x75, 0x65, 0x6e, 0x74, 0x69, 0x61, 0x6c, 0x5f, 0x31, 0x2f, 0x6f, 0x75, 0x74, 0x70, 0x75, 0x74,
  0x5f, 0x31, 0x2f, 0x42, 0x69, 0x61, 0x73, 0x41, 0x64, 0x64, 0x00, 0x00, 0x02, 0x00, 0x00, 0x00,
  0x01, 0x00, 0x00, 0x00, 0x04, 0x00, 0x00, 0x00, 0x1e, 0xfd, 0xff, 0xff, 0x00, 0x00, 0x00, 0x01,
  0x14, 0x00, 0x00, 0x00, 0x1c, 0x00, 0x00, 0x00, 0x1c, 0x00, 0x00, 0x00, 0x09, 0x00, 0x00, 0x00,
  0x74, 0x00, 0x00, 0x00, 0x02, 0x00, 0x00, 0x00, 0xff, 0xff, 0xff, 0xff, 0x10, 0x00, 0x00, 0x00,
  0x08, 0xfd, 0xff, 0xff, 0x58, 0x00, 0x00, 0x00, 0x73, 0x65, 0x71, 0x75, 0x65, 0x6e, 0x74, 0x69,
  0x61, 0x6c, 0x5f, 0x31, 0x2f, 0x68, 0x69, 0x64, 0x64, 0x65, 0x6e, 0x32, 0x5f, 0x31, 0x2f, 0x4d,
  0x61, 0x74, 0x4d, 0x75, 0x6c, 0x3b, 0x73, 0x65, 0x71, 0x75, 0x65, 0x6e, 0x74, 0x69, 0x61, 0x6c,
  0x5f, 0x31, 0x2f, 0x68, 0x69, 0x64, 0x64, 0x65, 0x6e, 0x32, 0x5f, 0x31, 0x2f, 0x52, 0x65, 0x6c,
  0x75, 0x3b, 0x73, 0x65, 0x71, 0x75, 0x65, 0x6e, 0x74, 0x69, 0x61, 0x6c, 0x5f, 0x31, 0x2f, 0x68,
  0x69, 0x64, 0x64, 0x65, 0x6e, 0x32, 0x5f, 0x31, 0x2f, 0x42, 0x69, 0x61, 0x73, 0x41, 0x64, 0x64,
  0x00, 0x00, 0x00, 0x00, 0x02, 0x00, 0x00, 0x00, 0x01, 0x00, 0x00, 0x00, 0x10, 0x00, 0x00, 0x00,
  0xb6, 0xfd, 0xff, 0xff, 0x00, 0x00, 0x00, 0x01, 0x14, 0x00, 0x00, 0x00, 0x1c, 0x00, 0x00, 0x00,
  0x1c, 0x00, 0x00, 0x00, 0x08, 0x00, 0x00, 0x00, 0x74, 0x00, 0x00, 0x00, 0x02, 0x00, 0x00, 0x00,
  0xff, 0xff, 0xff, 0xff, 0x20, 0x00, 0x00, 0x00, 0xa0, 0xfd, 0xff, 0xff, 0x58, 0x00, 0x00, 0x00,
  0x73, 0x65, 0x71, 0x75, 0x65, 0x6e, 0x74, 0x69, 0x61, 0x6c, 0x5f, 0x31, 0x2f, 0x68, 0x69, 0x64,
  0x64, 0x65, 0x6e, 0x31, 0x5f, 0x31, 0x2f, 0x4d, 0x61, 0x74, 0x4d, 0x75, 0x6c, 0x3b, 0x73, 0x65,
  0x71, 0x75, 0x65, 0x6e, 0x74, 0x69, 0x61, 0x6c, 0x5f, 0x31, 0x2f, 0x68, 0x69, 0x64, 0x64, 0x65,
  0x6e, 0x31, 0x5f, 0x31, 0x2f, 0x52, 0x65, 0x6c, 0x75, 0x3b, 0x73, 0x65, 0x71, 0x75, 0x65, 0x6e,
  0x74, 0x69, 0x61, 0x6c, 0x5f, 0x31, 0x2f, 0x68, 0x69, 0x64, 0x64, 0x65, 0x6e, 0x31, 0x5f, 0x31,
  0x2f, 0x42, 0x69, 0x61, 0x73, 0x41, 0x64, 0x64, 0x00, 0x00, 0x00, 0x00, 0x02, 0x00, 0x00, 0x00,
  0x01, 0x00, 0x00, 0x00, 0x20, 0x00, 0x00, 0x00, 0x9e, 0xfe, 0xff, 0xff, 0x00, 0x00, 0x00, 0x01,
  0x10, 0x00, 0x00, 0x00, 0x10, 0x00, 0x00, 0x00, 0x07, 0x00, 0x00, 0x00, 0x48, 0x00, 0x00, 0x00,
  0x28, 0xfe, 0xff, 0xff, 0x3a, 0x00, 0x00, 0x00, 0x73, 0x65, 0x71, 0x75, 0x65, 0x6e, 0x74, 0x69,
  0x61, 0x6c, 0x5f, 0x31, 0x2f, 0x68, 0x69, 0x64, 0x64, 0x65, 0x6e, 0x31, 0x5f, 0x31, 0x2f, 0x52,
  0x65, 0x6c, 0x75, 0x3b, 0x73, 0x65, 0x71, 0x75, 0x65, 0x6e, 0x74, 0x69, 0x61, 0x6c, 0x5f, 0x31,
  0x2f, 0x68, 0x69, 0x64, 0x64, 0x65, 0x6e, 0x31, 0x5f, 0x31, 0x2f, 0x42, 0x69, 0x61, 0x73, 0x41,
  0x64, 0x64, 0x00, 0x00, 0x01, 0x00, 0x00, 0x00, 0x20, 0x00, 0x00, 0x00, 0x02, 0xff, 0xff, 0xff,
  0x00, 0x00, 0x00, 0x01, 0x10, 0x00, 0x00, 0x00, 0x10, 0x00, 0x00, 0x00, 0x06, 0x00, 0x00, 0x00,
  0x2c, 0x00, 0x00, 0x00, 0x8c, 0xfe, 0xff, 0xff, 0x1d, 0x00, 0x00, 0x00, 0x73, 0x65, 0x71, 0x75,
  0x65, 0x6e, 0x74, 0x69, 0x61, 0x6c, 0x5f, 0x31, 0x2f, 0x68, 0x69, 0x64, 0x64, 0x65, 0x6e, 0x31,
  0x5f, 0x31, 0x2f, 0x4d, 0x61, 0x74, 0x4d, 0x75, 0x6c, 0x00, 0x00, 0x00, 0x02, 0x00, 0x00, 0x00,
  0x20, 0x00, 0x00, 0x00, 0x06, 0x00, 0x00, 0x00, 0x4e, 0xff, 0xff, 0xff, 0x00, 0x00, 0x00, 0x01,
  0x10, 0x00, 0x00, 0x00, 0x10, 0x00, 0x00, 0x00, 0x05, 0x00, 0x00, 0x00, 0x1c, 0x00, 0x00, 0x00,
  0xd8, 0xfe, 0xff, 0xff, 0x0f, 0x00, 0x00, 0x00, 0x61, 0x72, 0x69, 0x74, 0x68, 0x2e, 0x63, 0x6f,
  0x6e, 0x73, 0x74, 0x61, 0x6e, 0x74, 0x33, 0x00, 0x02, 0x00, 0x00, 0x00, 0x10, 0x00, 0x00, 0x00,
  0x20, 0x00, 0x00, 0x00, 0x8a, 0xff, 0xff, 0xff, 0x00, 0x00, 0x00, 0x01, 0x10, 0x00, 0x00, 0x00,
  0x10, 0x00, 0x00, 0x00, 0x04, 0x00, 0x00, 0x00, 0x1c, 0x00, 0x00, 0x00, 0x14, 0xff, 0xff, 0xff,
  0x0f, 0x00, 0x00, 0x00, 0x61, 0x72, 0x69, 0x74, 0x68, 0x2e, 0x63, 0x6f, 0x6e, 0x73, 0x74, 0x61,
  0x6e, 0x74, 0x32, 0x00, 0x02, 0x00, 0x00, 0x00, 0x04, 0x00, 0x00, 0x00, 0x10, 0x00, 0x00, 0x00,
  0xc6, 0xff, 0xff, 0xff, 0x00, 0x00, 0x00, 0x01, 0x10, 0x00, 0x00, 0x00, 0x10, 0x00, 0x00, 0x00,
  0x03, 0x00, 0x00, 0x00, 0x1c, 0x00, 0x00, 0x00, 0x50, 0xff, 0xff, 0xff, 0x0f, 0x00, 0x00, 0x00,
  0x61, 0x72, 0x69, 0x74, 0x68, 0x2e, 0x63, 0x6f, 0x6e, 0x73, 0x74, 0x61, 0x6e, 0x74, 0x31, 0x00,
  0x01, 0x00, 0x00, 0x00, 0x04, 0x00, 0x00, 0x00, 0x00, 0x00, 0x16, 0x00, 0x18, 0x00, 0x14, 0x00,
  0x00, 0x00, 0x10, 0x00, 0x0c, 0x00, 0x08, 0x00, 0x00, 0x00, 0x00, 0x00, 0x00, 0x00, 0x07, 0x00,
  0x16, 0x00, 0x00, 0x00, 0x00, 0x00, 0x00, 0x01, 0x10, 0x00, 0x00, 0x00, 0x10, 0x00, 0x00, 0x00,
  0x02, 0x00, 0x00, 0x00, 0x1c, 0x00, 0x00, 0x00, 0xa0, 0xff, 0xff, 0xff, 0x0e, 0x00, 0x00, 0x00,
  0x61, 0x72, 0x69, 0x74, 0x68, 0x2e, 0x63, 0x6f, 0x6e, 0x73, 0x74, 0x61, 0x6e, 0x74, 0x00, 0x00,
  0x01, 0x00, 0x00, 0x00, 0x10, 0x00, 0x00, 0x00, 0x00, 0x00, 0x16, 0x00, 0x1c, 0x00, 0x18, 0x00,
  0x00, 0x00, 0x14, 0x00, 0x10, 0x00, 0x0c, 0x00, 0x00, 0x00, 0x00, 0x00, 0x08, 0x00, 0x07, 0x00,
  0x16, 0x00, 0x00, 0x00, 0x00, 0x00, 0x00, 0x01, 0x14, 0x00, 0x00, 0x00, 0x20, 0x00, 0x00, 0x00,
  0x20, 0x00, 0x00, 0x00, 0x01, 0x00, 0x00, 0x00, 0x3c, 0x00, 0x00, 0x00, 0x02, 0x00, 0x00, 0x00,
  0xff, 0xff, 0xff, 0xff, 0x06, 0x00, 0x00, 0x00, 0x04, 0x00, 0x04, 0x00, 0x04, 0x00, 0x00, 0x00,
  0x1e, 0x00, 0x00, 0x00, 0x73, 0x65, 0x72, 0x76, 0x69, 0x6e, 0x67, 0x5f, 0x64, 0x65, 0x66, 0x61,
  0x75, 0x6c, 0x74, 0x5f, 0x6b, 0x65, 0x72, 0x61, 0x73, 0x5f, 0x74, 0x65, 0x6e, 0x73, 0x6f, 0x72,
  0x3a, 0x30, 0x00, 0x00, 0x02, 0x00, 0x00, 0x00, 0x01, 0x00, 0x00, 0x00, 0x06, 0x00, 0x00, 0x00,
  0x02, 0x00, 0x00, 0x00, 0x20, 0x00, 0x00, 0x00, 0x04, 0x00, 0x00, 0x00, 0xf4, 0xff, 0xff, 0xff,
  0x19, 0x00, 0x00, 0x00, 0x00, 0x00, 0x00, 0x19, 0x0c, 0x00, 0x0c, 0x00, 0x0b, 0x00, 0x00, 0x00,
  0x00, 0x00, 0x04, 0x00, 0x0c, 0x00, 0x00, 0x00, 0x09, 0x00, 0x00, 0x00, 0x00, 0x00, 0x00, 0x09
};
const unsigned int motor_model_len = 5376;

// Model information
#define NUM_FEATURES 6
#define NUM_CLASSES 4

// Class names
const char* class_names[] = {
  "Nivel 0",
  "Nivel 1",
  "Nivel 2",
  "Nivel 3"
};

#endif // MOTOR_MODEL_H
